{
  "version": "1.0",
  "truncation": null,
  "padding": null,
  "added_tokens": [
    {
      "id": 0,
      "content": "<|begin_of_text|>",
      "single_word": false,
      "lstrip": false,
      "rstrip": false,
      "normalized": false,
      "special": true
    },
    {
      "id": 1,
      "content": "<|end_of_text|>",
      "single_word": false,
      "lstrip": false,
      "rstrip": false,
      "normalized": false,
      "special": true
    },
    {
      "id": 2,
      "content": "<|finetune_right_pad_id|>",
      "single_word": false,
      "lstrip": false,
      "rstrip": false,
      "normalized": false,
      "special": true
    },
    {
      "id": 3,
      "content": "<|start_header_id|>",
      "single_word": false,
      "lstrip": false,
      "rstrip": false,
      "normalized": false,
      "special": true
    },
    {
      "id": 4,
      "content": "<|end_header_id|>",
      "single_word": false,
      "lstrip": false,
      "rstrip": false,
      "normalized": false,
      "special": true
    },
    {
      "id": 5,
      "content": "<|eom_id|>",
      "single_word": false,
      "lstrip": false,
      "rstrip": false,
      "normalized": false,
      "special": true
    },
    {
      "id": 6,
      "content": "<|eot_id|>",
      "single_word": false,
      "lstrip": false,
      "rstrip": false,
      "normalized": false,
      "special": true
    },
    {
      "id": 7,
      "content": "<|python_tag|>",
      "single_word": false,
      "lstrip": false,
      "rstrip": false,
      "normalized": false,
      "special": true
    },
    {
      "id": 8,
      "content": "<|begin_of_thought|>",
      "single_word": false,
      "lstrip": false,
      "rstrip": false,
      "normalized": false,
      "special": true
    },
    {
      "id": 9,
      "content": "<|end_of_thought|>",
      "single_word": false,
      "lstrip": false,
      "rstrip": false,
      "normalized": false,
      "special": true
    },
    {
      "id": 10,
      "content": "<|begin_of_solution|>",
      "single_word": false,
      "lstrip": false,
      "rstrip": false,
      "normalized": false,
      "special": true
    },
    {
      "id": 11,
      "content": "<|end_of_solution|>",
      "single_word": false,
      "lstrip": false,
      "rstrip": false,
      "normalized": false,
      "special": true
    },
    {
      "id": 12,
      "content": "<|reserved_special_token_0|>",
      "single_word": false,
      "lstrip": false,
      "rstrip": false,
      "normalized": false,
      "special": true
    },
    {
      "id": 13,
      "content": "<|reserved_special_token_1|>",
      "single_word": false,
      "lstrip": false,
      "rstrip": false,
      "normalized": false,
      "special": true
    },
    {
      "id": 14,
      "content": "<|reserved_special_token_2|>",
      "single_word": false,
      "lstrip": false,
      "rstrip": false,
      "normalized": false,
      "special": true
    },
    {
      "id": 15,
      "content": "<|reserved_special_token_3|>",
      "single_word": false,
      "lstrip": false,
      "rstrip": false,
      "normalized": false,
      "special": true
    },
    {
      "id": 16,
      "content": "<|reserved_special_token_4|>",
      "single_word": false,
      "lstrip": false,
      "rstrip": false,
      "normalized": false,
      "special": true
    },
    {
      "id": 17,
      "content": "<|reserved_special_token_5|>",
      "single_word": false,
      "lstrip": false,
      "rstrip": false,
      "normalized": false,
      "special": true
    },
    {
      "id": 18,
      "content": "<|reserved_special_token_6|>",
      "single_word": false,
      "lstrip": false,
      "rstrip": false,
      "normalized": false,
      "special": true
    },
    {
      "id": 19,
      "content": "<|reserved_special_token_7|>",
      "single_word": false,
      "lstrip": false,
      "rstrip": false,
      "normalized": false,
      "special": true
    },
    {
      "id": 20,
      "content": "<|reserved_special_token_8|>",
      "single_word": false,
      "lstrip": false,
      "rstrip": false,
      "normalized": false,
      "special": true
    },
    {
      "id": 21,
      "content": "<|reserved_special_token_9|>",
      "single_word": false,
      "lstrip": false,
      "rstrip": false,
      "normalized": false,
      "special": true
    },
    {
      "id": 22,
      "content": "<|reserved_special_token_10|>",
      "single_word": false,
      "lstrip": false,
      "rstrip": false,
      "normalized": false,
      "special": true
    },
    {
      "id": 23,
      "content": "<|reserved_special_token_11|>",
      "single_word": false,
      "lstrip": false,
      "rstrip": false,
      "normalized": false,
      "special": true
    },
    {
      "id": 24,
      "content": "<|reserved_special_token_12|>",
      "single_word": false,
      "lstrip": false,
      "rstrip": false,
      "normalized": false,
      "special": true
    },
    {
      "id": 25,
      "content": "<|reserved_special_token_13|>",
      "single_word": false,
      "lstrip": false,
      "rstrip": false,
      "normalized": false,
      "special": true
    },
    {
      "id": 26,
      "content": "<|reserved_special_token_14|>",
      "single_word": false,
      "lstrip": false,
      "rstrip": false,
      "normalized": false,
      "special": true
    },
    {
      "id": 27,
      "content": "<|reserved_special_token_15|>",
      "single_word": false,
      "lstrip": false,
      "rstrip": false,
      "normalized": false,
      "special": true
    },
    {
      "id": 28,
      "content": "<|reserved_special_token_16|>",
      "single_word": false,
      "lstrip": false,
      "rstrip": false,
      "normalized": false,
      "special": true
    },
    {
      "id": 29,
      "content": "<|reserved_special_token_17|>",
      "single_word": false,
      "lstrip": false,
      "rstrip": false,
      "normalized": false,
      "special": true
    },
    {
      "id": 30,
      "content": "<|reserved_special_token_18|>",
      "single_word": false,
      "lstrip": false,
      "rstrip": false,
      "normalized": false,
      "special": true
    },
    {
      "id": 31,
      "content": "<|reserved_special_token_19|>",
      "single_word": false,
      "lstrip": false,
      "rstrip": false,
      "normalized": false,
      "special": true
    },
    {
      "id": 32,
      "content": "<|reserved_special_token_20|>",
      "single_word": false,
      "lstrip": false,
      "rstrip": false,
      "normalized": false,
      "special": true
    },
    {
      "id": 33,
      "content": "<|reserved_special_token_21|>",
      "single_word": false,
      "lstrip": false,
      "rstrip": false,
      "normalized": false,
      "special": true
    },
    {
      "id": 34,
      "content": "<|reserved_special_token_22|>",
      "single_word": false,
      "lstrip": false,
      "rstrip": false,
      "normalized": false,
      "special": true
    },
    {
      "id": 35,
      "content": "<|reserved_special_token_23|>",
      "single_word": false,
      "lstrip": false,
      "rstrip": false,
      "normalized": false,
      "special": true
    },
    {
      "id": 36,
      "content": "<|reserved_special_token_24|>",
      "single_word": false,
      "lstrip": false,
      "rstrip": false,
      "normalized": false,
      "special": true
    },
    {
      "id": 37,
      "content": "<|reserved_special_token_25|>",
      "single_word": false,
      "lstrip": false,
      "rstrip": false,
      "normalized": false,
      "special": true
    },
    {
      "id": 38,
      "content": "<|reserved_special_token_26|>",
      "single_word": false,
      "lstrip": false,
      "rstrip": false,
      "normalized": false,
      "special": true
    },
    {
      "id": 39,
      "content": "<|reserved_special_token_27|>",
      "single_word": false,
      "lstrip": false,
      "rstrip": false,
      "normalized": false,
      "special": true
    },
    {
      "id": 40,
      "content": "<|reserved_special_token_28|>",
      "single_word": false,
      "lstrip": false,
      "rstrip": false,
      "normalized": false,
      "special": true
    },
    {
      "id": 41,
      "content": "<|reserved_special_token_29|>",
      "single_word": false,
      "lstrip": false,
      "rstrip": false,
      "normalized": false,
      "special": true
    },
    {
      "id": 42,
      "content": "<|reserved_special_token_30|>",
      "single_word": false,
      "lstrip": false,
      "rstrip": false,
      "normalized": false,
      "special": true
    },
    {
      "id": 43,
      "content": "<|reserved_special_token_31|>",
      "single_word": false,
      "lstrip": false,
      "rstrip": false,
      "normalized": false,
      "special": true
    },
    {
      "id": 44,
      "content": "<|reserved_special_token_32|>",
      "single_word": false,
      "lstrip": false,
      "rstrip": false,
      "normalized": false,
      "special": true
    },
    {
      "id": 45,
      "content": "<|reserved_special_token_33|>",
      "single_word": false,
      "lstrip": false,
      "rstrip": false,
      "normalized": false,
      "special": true
    },
    {
      "id": 46,
      "content": "<|reserved_special_token_34|>",
      "single_word": false,
      "lstrip": false,
      "rstrip": false,
      "normalized": false,
      "special": true
    },
    {
      "id": 47,
      "content": "<|reserved_special_token_35|>",
      "single_word": false,
      "lstrip": false,
      "rstrip": false,
      "normalized": false,
      "special": true
    },
    {
      "id": 48,
      "content": "<|reserved_special_token_36|>",
      "single_word": false,
      "lstrip": false,
      "rstrip": false,
      "normalized": false,
      "special": true
    },
    {
      "id": 49,
      "content": "<|reserved_special_token_37|>",
      "single_word": false,
      "lstrip": false,
      "rstrip": false,
      "normalized": false,
      "special": true
    },
    {
      "id": 50,
      "content": "<|reserved_special_token_38|>",
      "single_word": false,
      "lstrip": false,
      "rstrip": false,
      "normalized": false,
      "special": true
    },
    {
      "id": 51,
      "content": "<|reserved_special_token_39|>",
      "single_word": false,
      "lstrip": false,
      "rstrip": false,
      "normalized": false,
      "special": true
    },
    {
      "id": 52,
      "content": "<|reserved_special_token_40|>",
      "single_word": false,
      "lstrip": false,
      "rstrip": false,
      "normalized": false,
      "special": true
    },
    {
      "id": 53,
      "content": "<|reserved_special_token_41|>",
      "single_word": false,
      "lstrip": false,
      "rstrip": false,
      "normalized": false,
      "special": true
    },
    {
      "id": 54,
      "content": "<|reserved_special_token_42|>",
      "single_word": false,
      "lstrip": false,
      "rstrip": false,
      "normalized": false,
      "special": true
    },
    {
      "id": 55,
      "content": "<|reserved_special_token_43|>",
      "single_word": false,
      "lstrip": false,
      "rstrip": false,
      "normalized": false,
      "special": true
    },
    {
      "id": 56,
      "content": "<|reserved_special_token_44|>",
      "single_word": false,
      "lstrip": false,
      "rstrip": false,
      "normalized": false,
      "special": true
    },
    {
      "id": 57,
      "content": "<|reserved_special_token_45|>",
      "single_word": false,
      "lstrip": false,
      "rstrip": false,
      "normalized": false,
      "special": true
    },
    {
      "id": 58,
      "content": "<|reserved_special_token_46|>",
      "single_word": false,
      "lstrip": false,
      "rstrip": false,
      "normalized": false,
      "special": true
    },
    {
      "id": 59,
      "content": "<|reserved_special_token_47|>",
      "single_word": false,
      "lstrip": false,
      "rstrip": false,
      "normalized": false,
      "special": true
    },
    {
      "id": 60,
      "content": "<|reserved_special_token_48|>",
      "single_word": false,
      "lstrip": false,
      "rstrip": false,
      "normalized": false,
      "special": true
    },
    {
      "id": 61,
      "content": "<|reserved_special_token_49|>",
      "single_word": false,
      "lstrip": false,
      "rstrip": false,
      "normalized": false,
      "special": true
    },
    {
      "id": 62,
      "content": "<|reserved_special_token_50|>",
      "single_word": false,
      "lstrip": false,
      "rstrip": false,
      "normalized": false,
      "special": true
    },
    {
      "id": 63,
      "content": "<|reserved_special_token_51|>",
      "single_word": false,
      "lstrip": false,
      "rstrip": false,
      "normalized": false,
      "special": true
    },
    {
      "id": 64,
      "content": "<|reserved_special_token_52|>",
      "single_word": false,
      "lstrip": false,
      "rstrip": false,
      "normalized": false,
      "special": true
    },
    {
      "id": 65,
      "content": "<|reserved_special_token_53|>",
      "single_word": false,
      "lstrip": false,
      "rstrip": false,
      "normalized": false,
      "special": true
    },
    {
      "id": 66,
      "content": "<|reserved_special_token_54|>",
      "single_word": false,
      "lstrip": false,
      "rstrip": false,
      "normalized": false,
      "special": true
    },
    {
      "id": 67,
      "content": "<|reserved_special_token_55|>",
      "single_word": false,
      "lstrip": false,
      "rstrip": false,
      "normalized": false,
      "special": true
    },
    {
      "id": 68,
      "content": "<|reserved_special_token_56|>",
      "single_word": false,
      "lstrip": false,
      "rstrip": false,
      "normalized": false,
      "special": true
    },
    {
      "id": 69,
      "content": "<|reserved_special_token_57|>",
      "single_word": false,
      "lstrip": false,
      "rstrip": false,
      "normalized": false,
      "special": true
    },
    {
      "id": 70,
      "content": "<|reserved_special_token_58|>",
      "single_word": false,
      "lstrip": false,
      "rstrip": false,
      "normalized": false,
      "special": true
    },
    {
      "id": 71,
      "content": "<|reserved_special_token_59|>",
      "single_word": false,
      "lstrip": false,
      "rstrip": false,
      "normalized": false,
      "special": true
    },
    {
      "id": 72,
      "content": "<|reserved_special_token_60|>",
      "single_word": false,
      "lstrip": false,
      "rstrip": false,
      "normalized": false,
      "special": true
    },
    {
      "id": 73,
      "content": "<|reserved_special_token_61|>",
      "single_word": false,
      "lstrip": false,
      "rstrip": false,
      "normalized": false,
      "special": true
    },
    {
      "id": 74,
      "content": "<|reserved_special_token_62|>",
      "single_word": false,
      "lstrip": false,
      "rstrip": false,
      "normalized": false,
      "special": true
    },
    {
      "id": 75,
      "content": "<|reserved_special_token_63|>",
      "single_word": false,
      "lstrip": false,
      "rstrip": false,
      "normalized": false,
      "special": true
    },
    {
      "id": 76,
      "content": "<|reserved_special_token_64|>",
      "single_word": false,
      "lstrip": false,
      "rstrip": false,
      "normalized": false,
      "special": true
    },
    {
      "id": 77,
      "content": "<|reserved_special_token_65|>",
      "single_word": false,
      "lstrip": false,
      "rstrip": false,
      "normalized": false,
      "special": true
    },
    {
      "id": 78,
      "content": "<|reserved_special_token_66|>",
      "single_word": false,
      "lstrip": false,
      "rstrip": false,
      "normalized": false,
      "special": true
    },
    {
      "id": 79,
      "content": "<|reserved_special_token_67|>",
      "single_word": false,
      "lstrip": false,
      "rstrip": false,
      "normalized": false,
      "special": true
    },
    {
      "id": 80,
      "content": "<|reserved_special_token_68|>",
      "single_word": false,
      "lstrip": false,
      "rstrip": false,
      "normalized": false,
      "special": true
    },
    {
      "id": 81,
      "content": "<|reserved_special_token_69|>",
      "single_word": false,
      "lstrip": false,
      "rstrip": false,
      "normalized": false,
      "special": true
    },
    {
      "id": 82,
      "content": "<|reserved_special_token_70|>",
      "single_word": false,
      "lstrip": false,
      "rstrip": false,
      "normalized": false,
      "special": true
    },
    {
      "id": 83,
      "content": "<|reserved_special_token_71|>",
      "single_word": false,
      "lstrip": false,
      "rstrip": false,
      "normalized": false,
      "special": true
    },
    {
      "id": 84,
      "content": "<|reserved_special_token_72|>",
      "single_word": false,
      "lstrip": false,
      "rstrip": false,
      "normalized": false,
      "special": true
    },
    {
      "id": 85,
      "content": "<|reserved_special_token_73|>",
      "single_word": false,
      "lstrip": false,
      "rstrip": false,
      "normalized": false,
      "special": true
    },
    {
      "id": 86,
      "content": "<|reserved_special_token_74|>",
      "single_word": false,
      "lstrip": false,
      "rstrip": false,
      "normalized": false,
      "special": true
    },
    {
      "id": 87,
      "content": "<|reserved_special_token_75|>",
      "single_word": false,
      "lstrip": false,
      "rstrip": false,
      "normalized": false,
      "special": true
    },
    {
      "id": 88,
      "content": "<|reserved_special_token_76|>",
      "single_word": false,
      "lstrip": false,
      "rstrip": false,
      "normalized": false,
      "special": true
    },
    {
      "id": 89,
      "content": "<|reserved_special_token_77|>",
      "single_word": false,
      "lstrip": false,
      "rstrip": false,
      "normalized": false,
      "special": true
    },
    {
      "id": 90,
      "content": "<|reserved_special_token_78|>",
      "single_word": false,
      "lstrip": false,
      "rstrip": false,
      "normalized": false,
      "special": true
    },
    {
      "id": 91,
      "content": "<|reserved_special_token_79|>",
      "single_word": false,
      "lstrip": false,
      "rstrip": false,
      "normalized": false,
      "special": true
    },
    {
      "id": 92,
      "content": "<|reserved_special_token_80|>",
      "single_word": false,
      "lstrip": false,
      "rstrip": false,
      "normalized": false,
      "special": true
    },
    {
      "id": 93,
      "content": "<|reserved_special_token_81|>",
      "single_word": false,
      "lstrip": false,
      "rstrip": false,
      "normalized": false,
      "special": true
    },
    {
      "id": 94,
      "content": "<|reserved_special_token_82|>",
      "single_word": false,
      "lstrip": false,
      "rstrip": false,
      "normalized": false,
      "special": true
    },
    {
      "id": 95,
      "content": "<|reserved_special_token_83|>",
      "single_word": false,
      "lstrip": false,
      "rstrip": false,
      "normalized": false,
      "special": true
    },
    {
      "id": 96,
      "content": "<|reserved_special_token_84|>",
      "single_word": false,
      "lstrip": false,
      "rstrip": false,
      "normalized": false,
      "special": true
    },
    {
      "id": 97,
      "content": "<|reserved_special_token_85|>",
      "single_word": false,
      "lstrip": false,
      "rstrip": false,
      "normalized": false,
      "special": true
    },
    {
      "id": 98,
      "content": "<|reserved_special_token_86|>",
      "single_word": false,
      "lstrip": false,
      "rstrip": false,
      "normalized": false,
      "special": true
    },
    {
      "id": 99,
      "content": "<|reserved_special_token_87|>",
      "single_word": false,
      "lstrip": false,
      "rstrip": false,
      "normalized": false,
      "special": true
    },
    {
      "id": 100,
      "content": "<|reserved_special_token_88|>",
      "single_word": false,
      "lstrip": false,
      "rstrip": false,
      "normalized": false,
      "special": true
    },
    {
      "id": 101,
      "content": "<|reserved_special_token_89|>",
      "single_word": false,
      "lstrip": false,
      "rstrip": false,
      "normalized": false,
      "special": true
    },
    {
      "id": 102,
      "content": "<|reserved_special_token_90|>",
      "single_word": false,
      "lstrip": false,
      "rstrip": false,
      "normalized": false,
      "special": true
    },
    {
      "id": 103,
      "content": "<|reserved_special_token_91|>",
      "single_word": false,
      "lstrip": false,
      "rstrip": false,
      "normalized": false,
      "special": true
    },
    {
      "id": 104,
      "content": "<|reserved_special_token_92|>",
      "single_word": false,
      "lstrip": false,
      "rstrip": false,
      "normalized": false,
      "special": true
    },
    {
      "id": 105,
      "content": "<|reserved_special_token_93|>",
      "single_word": false,
      "lstrip": false,
      "rstrip": false,
      "normalized": false,
      "special": true
    },
    {
      "id": 106,
      "content": "<|reserved_special_token_94|>",
      "single_word": false,
      "lstrip": false,
      "rstrip": false,
      "normalized": false,
      "special": true
    },
    {
      "id": 107,
      "content": "<|reserved_special_token_95|>",
      "single_word": false,
      "lstrip": false,
      "rstrip": false,
      "normalized": false,
      "special": true
    },
    {
      "id": 108,
      "content": "<|reserved_special_token_96|>",
      "single_word": false,
      "lstrip": false,
      "rstrip": false,
      "normalized": false,
      "special": true
    },
    {
      "id": 109,
      "content": "<|reserved_special_token_97|>",
      "single_word": false,
      "lstrip": false,
      "rstrip": false,
      "normalized": false,
      "special": true
    },
    {
      "id": 110,
      "content": "<|reserved_special_token_98|>",
      "single_word": false,
      "lstrip": false,
      "rstrip": false,
      "normalized": false,
      "special": true
    },
    {
      "id": 111,
      "content": "<|reserved_special_token_99|>",
      "single_word": false,
      "lstrip": false,
      "rstrip": false,
      "normalized": false,
      "special": true
    },
    {
      "id": 112,
      "content": "<|reserved_special_token_100|>",
      "single_word": false,
      "lstrip": false,
      "rstrip": false,
      "normalized": false,
      "special": true
    },
    {
      "id": 113,
      "content": "<|reserved_special_token_101|>",
      "single_word": false,
      "lstrip": false,
      "rstrip": false,
      "normalized": false,
      "special": true
    },
    {
      "id": 114,
      "content": "<|reserved_special_token_102|>",
      "single_word": false,
      "lstrip": false,
      "rstrip": false,
      "normalized": false,
      "special": true
    },
    {
      "id": 115,
      "content": "<|reserved_special_token_103|>",
      "single_word": false,
      "lstrip": false,
      "rstrip": false,
      "normalized": false,
      "special": true
    },
    {
      "id": 116,
      "content": "<|reserved_special_token_104|>",
      "single_word": false,
      "lstrip": false,
      "rstrip": false,
      "normalized": false,
      "special": true
    },
    {
      "id": 117,
      "content": "<|reserved_special_token_105|>",
      "single_word": false,
      "lstrip": false,
      "rstrip": false,
      "normalized": false,
      "special": true
    },
    {
      "id": 118,
      "content": "<|reserved_special_token_106|>",
      "single_word": false,
      "lstrip": false,
      "rstrip": false,
      "normalized": false,
      "special": true
    },
    {
      "id": 119,
      "content": "<|reserved_special_token_107|>",
      "single_word": false,
      "lstrip": false,
      "rstrip": false,
      "normalized": false,
      "special": true
    },
    {
      "id": 120,
      "content": "<|reserved_special_token_108|>",
      "single_word": false,
      "lstrip": false,
      "rstrip": false,
      "normalized": false,
      "special": true
    },
    {
      "id": 121,
      "content": "<|reserved_special_token_109|>",
      "single_word": false,
      "lstrip": false,
      "rstrip": false,
      "normalized": false,
      "special": true
    },
    {
      "id": 122,
      "content": "<|reserved_special_token_110|>",
      "single_word": false,
      "lstrip": false,
      "rstrip": false,
      "normalized": false,
      "special": true
    },
    {
      "id": 123,
      "content": "<|reserved_special_token_111|>",
      "single_word": false,
      "lstrip": false,
      "rstrip": false,
      "normalized": false,
      "special": true
    },
    {
      "id": 124,
      "content": "<|reserved_special_token_112|>",
      "single_word": false,
      "lstrip": false,
      "rstrip": false,
      "normalized": false,
      "special": true
    },
    {
      "id": 125,
      "content": "<|reserved_special_token_113|>",
      "single_word": false,
      "lstrip": false,
      "rstrip": false,
      "normalized": false,
      "special": true
    },
    {
      "id": 126,
      "content": "<|reserved_special_token_114|>",
      "single_word": false,
      "lstrip": false,
      "rstrip": false,
      "normalized": false,
      "special": true
    },
    {
      "id": 127,
      "content": "<|reserved_special_token_115|>",
      "single_word": false,
      "lstrip": false,
      "rstrip": false,
      "normalized": false,
      "special": true
    },
    {
      "id": 128,
      "content": "<|reserved_special_token_116|>",
      "single_word": false,
      "lstrip": false,
      "rstrip": false,
      "normalized": false,
      "special": true
    },
    {
      "id": 129,
      "content": "<|reserved_special_token_117|>",
      "single_word": false,
      "lstrip": false,
      "rstrip": false,
      "normalized": false,
      "special": true
    },
    {
      "id": 130,
      "content": "<|reserved_special_token_118|>",
      "single_word": false,
      "lstrip": false,
      "rstrip": false,
      "normalized": false,
      "special": true
    },
    {
      "id": 131,
      "content": "<|reserved_special_token_119|>",
      "single_word": false,
      "lstrip": false,
      "rstrip": false,
      "normalized": false,
      "special": true
    },
    {
      "id": 132,
      "content": "<|reserved_special_token_120|>",
      "single_word": false,
      "lstrip": false,
      "rstrip": false,
      "normalized": false,
      "special": true
    },
    {
      "id": 133,
      "content": "<|reserved_special_token_121|>",
      "single_word": false,
      "lstrip": false,
      "rstrip": false,
      "normalized": false,
      "special": true
    },
    {
      "id": 134,
      "content": "<|reserved_special_token_122|>",
      "single_word": false,
      "lstrip": false,
      "rstrip": false,
      "normalized": false,
      "special": true
    },
    {
      "id": 135,
      "content": "<|reserved_special_token_123|>",
      "single_word": false,
      "lstrip": false,
      "rstrip": false,
      "normalized": false,
      "special": true
    },
    {
      "id": 136,
      "content": "<|reserved_special_token_124|>",
      "single_word": false,
      "lstrip": false,
      "rstrip": false,
      "normalized": false,
      "special": true
    },
    {
      "id": 137,
      "content": "<|reserved_special_token_125|>",
      "single_word": false,
      "lstrip": false,
      "rstrip": false,
      "normalized": false,
      "special": true
    },
    {
      "id": 138,
      "content": "<|reserved_special_token_126|>",
      "single_word": false,
      "lstrip": false,
      "rstrip": false,
      "normalized": false,
      "special": true
    },
    {
      "id": 139,
      "content": "<|reserved_special_token_127|>",
      "single_word": false,
      "lstrip": false,
      "rstrip": false,
      "normalized": false,
      "special": true
    },
    {
      "id": 140,
      "content": "<|reserved_special_token_128|>",
      "single_word": false,
      "lstrip": false,
      "rstrip": false,
      "normalized": false,
      "special": true
    },
    {
      "id": 141,
      "content": "<|reserved_special_token_129|>",
      "single_word": false,
      "lstrip": false,
      "rstrip": false,
      "normalized": false,
      "special": true
    },
    {
      "id": 142,
      "content": "<|reserved_special_token_130|>",
      "single_word": false,
      "lstrip": false,
      "rstrip": false,
      "normalized": false,
      "special": true
    },
    {
      "id": 143,
      "content": "<|reserved_special_token_131|>",
      "single_word": false,
      "lstrip": false,
      "rstrip": false,
      "normalized": false,
      "special": true
    },
    {
      "id": 144,
      "content": "<|reserved_special_token_132|>",
      "single_word": false,
      "lstrip": false,
      "rstrip": false,
      "normalized": false,
      "special": true
    },
    {
      "id": 145,
      "content": "<|reserved_special_token_133|>",
      "single_word": false,
      "lstrip": false,
      "rstrip": false,
      "normalized": false,
      "special": true
    },
    {
      "id": 146,
      "content": "<|reserved_special_token_134|>",
      "single_word": false,
      "lstrip": false,
      "rstrip": false,
      "normalized": false,
      "special": true
    },
    {
      "id": 147,
      "content": "<|reserved_special_token_135|>",
      "single_word": false,
      "lstrip": false,
      "rstrip": false,
      "normalized": false,
      "special": true
    },
    {
      "id": 148,
      "content": "<|reserved_special_token_136|>",
      "single_word": false,
      "lstrip": false,
      "rstrip": false,
      "normalized": false,
      "special": true
    },
    {
      "id": 149,
      "content": "<|reserved_special_token_137|>",
      "single_word": false,
      "lstrip": false,
      "rstrip": false,
      "normalized": false,
      "special": true
    },
    {
      "id": 150,
      "content": "<|reserved_special_token_138|>",
      "single_word": false,
      "lstrip": false,
      "rstrip": false,
      "normalized": false,
      "special": true
    },
    {
      "id": 151,
      "content": "<|reserved_special_token_139|>",
      "single_word": false,
      "lstrip": false,
      "rstrip": false,
      "normalized": false,
      "special": true
    },
    {
      "id": 152,
      "content": "<|reserved_special_token_140|>",
      "single_word": false,
      "lstrip": false,
      "rstrip": false,
      "normalized": false,
      "special": true
    },
    {
      "id": 153,
      "content": "<|reserved_special_token_141|>",
      "single_word": false,
      "lstrip": false,
      "rstrip": false,
      "normalized": false,
      "special": true
    },
    {
      "id": 154,
      "content": "<|reserved_special_token_142|>",
      "single_word": false,
      "lstrip": false,
      "rstrip": false,
      "normalized": false,
      "special": true
    },
    {
      "id": 155,
      "content": "<|reserved_special_token_143|>",
      "single_word": false,
      "lstrip": false,
      "rstrip": false,
      "normalized": false,
      "special": true
    },
    {
      "id": 156,
      "content": "<|reserved_special_token_144|>",
      "single_word": false,
      "lstrip": false,
      "rstrip": false,
      "normalized": false,
      "special": true
    },
    {
      "id": 157,
      "content": "<|reserved_special_token_145|>",
      "single_word": false,
      "lstrip": false,
      "rstrip": false,
      "normalized": false,
      "special": true
    },
    {
      "id": 158,
      "content": "<|reserved_special_token_146|>",
      "single_word": false,
      "lstrip": false,
      "rstrip": false,
      "normalized": false,
      "special": true
    },
    {
      "id": 159,
      "content": "<|reserved_special_token_147|>",
      "single_word": false,
      "lstrip": false,
      "rstrip": false,
      "normalized": false,
      "special": true
    },
    {
      "id": 160,
      "content": "<|reserved_special_token_148|>",
      "single_word": false,
      "lstrip": false,
      "rstrip": false,
      "normalized": false,
      "special": true
    },
    {
      "id": 161,
      "content": "<|reserved_special_token_149|>",
      "single_word": false,
      "lstrip": false,
      "rstrip": false,
      "normalized": false,
      "special": true
    },
    {
      "id": 162,
      "content": "<|reserved_special_token_150|>",
      "single_word": false,
      "lstrip": false,
      "rstrip": false,
      "normalized": false,
      "special": true
    },
    {
      "id": 163,
      "content": "<|reserved_special_token_151|>",
      "single_word": false,
      "lstrip": false,
      "rstrip": false,
      "normalized": false,
      "special": true
    },
    {
      "id": 164,
      "content": "<|reserved_special_token_152|>",
      "single_word": false,
      "lstrip": false,
      "rstrip": false,
      "normalized": false,
      "special": true
    },
    {
      "id": 165,
      "content": "<|reserved_special_token_153|>",
      "single_word": false,
      "lstrip": false,
      "rstrip": false,
      "normalized": false,
      "special": true
    },
    {
      "id": 166,
      "content": "<|reserved_special_token_154|>",
      "single_word": false,
      "lstrip": false,
      "rstrip": false,
      "normalized": false,
      "special": true
    },
    {
      "id": 167,
      "content": "<|reserved_special_token_155|>",
      "single_word": false,
      "lstrip": false,
      "rstrip": false,
      "normalized": false,
      "special": true
    },
    {
      "id": 168,
      "content": "<|reserved_special_token_156|>",
      "single_word": false,
      "lstrip": false,
      "rstrip": false,
      "normalized": false,
      "special": true
    },
    {
      "id": 169,
      "content": "<|reserved_special_token_157|>",
      "single_word": false,
      "lstrip": false,
      "rstrip": false,
      "normalized": false,
      "special": true
    },
    {
      "id": 170,
      "content": "<|reserved_special_token_158|>",
      "single_word": false,
      "lstrip": false,
      "rstrip": false,
      "normalized": false,
      "special": true
    },
    {
      "id": 171,
      "content": "<|reserved_special_token_159|>",
      "single_word": false,
      "lstrip": false,
      "rstrip": false,
      "normalized": false,
      "special": true
    },
    {
      "id": 172,
      "content": "<|reserved_special_token_160|>",
      "single_word": false,
      "lstrip": false,
      "rstrip": false,
      "normalized": false,
      "special": true
    },
    {
      "id": 173,
      "content": "<|reserved_special_token_161|>",
      "single_word": false,
      "lstrip": false,
      "rstrip": false,
      "normalized": false,
      "special": true
    },
    {
      "id": 174,
      "content": "<|reserved_special_token_162|>",
      "single_word": false,
      "lstrip": false,
      "rstrip": false,
      "normalized": false,
      "special": true
    },
    {
      "id": 175,
      "content": "<|reserved_special_token_163|>",
      "single_word": false,
      "lstrip": false,
      "rstrip": false,
      "normalized": false,
      "special": true
    },
    {
      "id": 176,
      "content": "<|reserved_special_token_164|>",
      "single_word": false,
      "lstrip": false,
      "rstrip": false,
      "normalized": false,
      "special": true
    },
    {
      "id": 177,
      "content": "<|reserved_special_token_165|>",
      "single_word": false,
      "lstrip": false,
      "rstrip": false,
      "normalized": false,
      "special": true
    },
    {
      "id": 178,
      "content": "<|reserved_special_token_166|>",
      "single_word": false,
      "lstrip": false,
      "rstrip": false,
      "normalized": false,
      "special": true
    },
    {
      "id": 179,
      "content": "<|reserved_special_token_167|>",
      "single_word": false,
      "lstrip": false,
      "rstrip": false,
      "normalized": false,
      "special": true
    },
    {
      "id": 180,
      "content": "<|reserved_special_token_168|>",
      "single_word": false,
      "lstrip": false,
      "rstrip": false,
      "normalized": false,
      "special": true
    },
    {
      "id": 181,
      "content": "<|reserved_special_token_169|>",
      "single_word": false,
      "lstrip": false,
      "rstrip": false,
      "normalized": false,
      "special": true
    },
    {
      "id": 182,
      "content": "<|reserved_special_token_170|>",
      "single_word": false,
      "lstrip": false,
      "rstrip": false,
      "normalized": false,
      "special": true
    },
    {
      "id": 183,
      "content": "<|reserved_special_token_171|>",
      "single_word": false,
      "lstrip": false,
      "rstrip": false,
      "normalized": false,
      "special": true
    },
    {
      "id": 184,
      "content": "<|reserved_special_token_172|>",
      "single_word": false,
      "lstrip": false,
      "rstrip": false,
      "normalized": false,
      "special": true
    },
    {
      "id": 185,
      "content": "<|reserved_special_token_173|>",
      "single_word": false,
      "lstrip": false,
      "rstrip": false,
      "normalized": false,
      "special": true
    },
    {
      "id": 186,
      "content": "<|reserved_special_token_174|>",
      "single_word": false,
      "lstrip": false,
      "rstrip": false,
      "normalized": false,
      "special": true
    },
    {
      "id": 187,
      "content": "<|reserved_special_token_175|>",
      "single_word": false,
      "lstrip": false,
      "rstrip": false,
      "normalized": false,
      "special": true
    },
    {
      "id": 188,
      "content": "<|reserved_special_token_176|>",
      "single_word": false,
      "lstrip": false,
      "rstrip": false,
      "normalized": false,
      "special": true
    },
    {
      "id": 189,
      "content": "<|reserved_special_token_177|>",
      "single_word": false,
      "lstrip": false,
      "rstrip": false,
      "normalized": false,
      "special": true
    },
    {
      "id": 190,
      "content": "<|reserved_special_token_178|>",
      "single_word": false,
      "lstrip": false,
      "rstrip": false,
      "normalized": false,
      "special": true
    },
    {
      "id": 191,
      "content": "<|reserved_special_token_179|>",
      "single_word": false,
      "lstrip": false,
      "rstrip": false,
      "normalized": false,
      "special": true
    },
    {
      "id": 192,
      "content": "<|reserved_special_token_180|>",
      "single_word": false,
      "lstrip": false,
      "rstrip": false,
      "normalized": false,
      "special": true
    },
    {
      "id": 193,
      "content": "<|reserved_special_token_181|>",
      "single_word": false,
      "lstrip": false,
      "rstrip": false,
      "normalized": false,
      "special": true
    },
    {
      "id": 194,
      "content": "<|reserved_special_token_182|>",
      "single_word": false,
      "lstrip": false,
      "rstrip": false,
      "normalized": false,
      "special": true
    },
    {
      "id": 195,
      "content": "<|reserved_special_token_183|>",
      "single_word": false,
      "lstrip": false,
      "rstrip": false,
      "normalized": false,
      "special": true
    },
    {
      "id": 196,
      "content": "<|reserved_special_token_184|>",
      "single_word": false,
      "lstrip": false,
      "rstrip": false,
      "normalized": false,
      "special": true
    },
    {
      "id": 197,
      "content": "<|reserved_special_token_185|>",
      "single_word": false,
      "lstrip": false,
      "rstrip": false,
      "normalized": false,
      "special": true
    },
    {
      "id": 198,
      "content": "<|reserved_special_token_186|>",
      "single_word": false,
      "lstrip": false,
      "rstrip": false,
      "normalized": false,
      "special": true
    },
    {
      "id": 199,
      "content": "<|reserved_special_token_187|>",
      "single_word": false,
      "lstrip": false,
      "rstrip": false,
      "normalized": false,
      "special": true
    },
    {
      "id": 200,
      "content": "<|reserved_special_token_188|>",
      "single_word": false,
      "lstrip": false,
      "rstrip": false,
      "normalized": false,
      "special": true
    },
    {
      "id": 201,
      "content": "<|reserved_special_token_189|>",
      "single_word": false,
      "lstrip": false,
      "rstrip": false,
      "normalized": false,
      "special": true
    },
    {
      "id": 202,
      "content": "<|reserved_special_token_190|>",
      "single_word": false,
      "lstrip": false,
      "rstrip": false,
      "normalized": false,
      "special": true
    },
    {
      "id": 203,
      "content": "<|reserved_special_token_191|>",
      "single_word": false,
      "lstrip": false,
      "rstrip": false,
      "normalized": false,
      "special": true
    },
    {
      "id": 204,
      "content": "<|reserved_special_token_192|>",
      "single_word": false,
      "lstrip": false,
      "rstrip": false,
      "normalized": false,
      "special": true
    },
    {
      "id": 205,
      "content": "<|reserved_special_token_193|>",
      "single_word": false,
      "lstrip": false,
      "rstrip": false,
      "normalized": false,
      "special": true
    },
    {
      "id": 206,
      "content": "<|reserved_special_token_194|>",
      "single_word": false,
      "lstrip": false,
      "rstrip": false,
      "normalized": false,
      "special": true
    },
    {
      "id": 207,
      "content": "<|reserved_special_token_195|>",
      "single_word": false,
      "lstrip": false,
      "rstrip": false,
      "normalized": false,
      "special": true
    },
    {
      "id": 208,
      "content": "<|reserved_special_token_196|>",
      "single_word": false,
      "lstrip": false,
      "rstrip": false,
      "normalized": false,
      "special": true
    },
    {
      "id": 209,
      "content": "<|reserved_special_token_197|>",
      "single_word": false,
      "lstrip": false,
      "rstrip": false,
      "normalized": false,
      "special": true
    },
    {
      "id": 210,
      "content": "<|reserved_special_token_198|>",
      "single_word": false,
      "lstrip": false,
      "rstrip": false,
      "normalized": false,
      "special": true
    },
    {
      "id": 211,
      "content": "<|reserved_special_token_199|>",
      "single_word": false,
      "lstrip": false,
      "rstrip": false,
      "normalized": false,
      "special": true
    },
    {
      "id": 212,
      "content": "<|reserved_special_token_200|>",
      "single_word": false,
      "lstrip": false,
      "rstrip": false,
      "normalized": false,
      "special": true
    },
    {
      "id": 213,
      "content": "<|reserved_special_token_201|>",
      "single_word": false,
      "lstrip": false,
      "rstrip": false,
      "normalized": false,
      "special": true
    },
    {
      "id": 214,
      "content": "<|reserved_special_token_202|>",
      "single_word": false,
      "lstrip": false,
      "rstrip": false,
      "normalized": false,
      "special": true
    },
    {
      "id": 215,
      "content": "<|reserved_special_token_203|>",
      "single_word": false,
      "lstrip": false,
      "rstrip": false,
      "normalized": false,
      "special": true
    },
    {
      "id": 216,
      "content": "<|reserved_special_token_204|>",
      "single_word": false,
      "lstrip": false,
      "rstrip": false,
      "normalized": false,
      "special": true
    },
    {
      "id": 217,
      "content": "<|reserved_special_token_205|>",
      "single_word": false,
      "lstrip": false,
      "rstrip": false,
      "normalized": false,
      "special": true
    },
    {
      "id": 218,
      "content": "<|reserved_special_token_206|>",
      "single_word": false,
      "lstrip": false,
      "rstrip": false,
      "normalized": false,
      "special": true
    },
    {
      "id": 219,
      "content": "<|reserved_special_token_207|>",
      "single_word": false,
      "lstrip": false,
      "rstrip": false,
      "normalized": false,
      "special": true
    },
    {
      "id": 220,
      "content": "<|reserved_special_token_208|>",
      "single_word": false,
      "lstrip": false,
      "rstrip": false,
      "normalized": false,
      "special": true
    },
    {
      "id": 221,
      "content": "<|reserved_special_token_209|>",
      "single_word": false,
      "lstrip": false,
      "rstrip": false,
      "normalized": false,
      "special": true
    },
    {
      "id": 222,
      "content": "<|reserved_special_token_210|>",
      "single_word": false,
      "lstrip": false,
      "rstrip": false,
      "normalized": false,
      "special": true
    },
    {
      "id": 223,
      "content": "<|reserved_special_token_211|>",
      "single_word": false,
      "lstrip": false,
      "rstrip": false,
      "normalized": false,
      "special": true
    },
    {
      "id": 224,
      "content": "<|reserved_special_token_212|>",
      "single_word": false,
      "lstrip": false,
      "rstrip": false,
      "normalized": false,
      "special": true
    },
    {
      "id": 225,
      "content": "<|reserved_special_token_213|>",
      "single_word": false,
      "lstrip": false,
      "rstrip": false,
      "normalized": false,
      "special": true
    },
    {
      "id": 226,
      "content": "<|reserved_special_token_214|>",
      "single_word": false,
      "lstrip": false,
      "rstrip": false,
      "normalized": false,
      "special": true
    },
    {
      "id": 227,
      "content": "<|reserved_special_token_215|>",
      "single_word": false,
      "lstrip": false,
      "rstrip": false,
      "normalized": false,
      "special": true
    },
    {
      "id": 228,
      "content": "<|reserved_special_token_216|>",
      "single_word": false,
      "lstrip": false,
      "rstrip": false,
      "normalized": false,
      "special": true
    },
    {
      "id": 229,
      "content": "<|reserved_special_token_217|>",
      "single_word": false,
      "lstrip": false,
      "rstrip": false,
      "normalized": false,
      "special": true
    },
    {
      "id": 230,
      "content": "<|reserved_special_token_218|>",
      "single_word": false,
      "lstrip": false,
      "rstrip": false,
      "normalized": false,
      "special": true
    },
    {
      "id": 231,
      "content": "<|reserved_special_token_219|>",
      "single_word": false,
      "lstrip": false,
      "rstrip": false,
      "normalized": false,
      "special": true
    },
    {
      "id": 232,
      "content": "<|reserved_special_token_220|>",
      "single_word": false,
      "lstrip": false,
      "rstrip": false,
      "normalized": false,
      "special": true
    },
    {
      "id": 233,
      "content": "<|reserved_special_token_221|>",
      "single_word": false,
      "lstrip": false,
      "rstrip": false,
      "normalized": false,
      "special": true
    },
    {
      "id": 234,
      "content": "<|reserved_special_token_222|>",
      "single_word": false,
      "lstrip": false,
      "rstrip": false,
      "normalized": false,
      "special": true
    },
    {
      "id": 235,
      "content": "<|reserved_special_token_223|>",
      "single_word": false,
      "lstrip": false,
      "rstrip": false,
      "normalized": false,
      "special": true
    },
    {
      "id": 236,
      "content": "<|reserved_special_token_224|>",
      "single_word": false,
      "lstrip": false,
      "rstrip": false,
      "normalized": false,
      "special": true
    },
    {
      "id": 237,
      "content": "<|reserved_special_token_225|>",
      "single_word": false,
      "lstrip": false,
      "rstrip": false,
      "normalized": false,
      "special": true
    },
    {
      "id": 238,
      "content": "<|reserved_special_token_226|>",
      "single_word": false,
      "lstrip": false,
      "rstrip": false,
      "normalized": false,
      "special": true
    },
    {
      "id": 239,
      "content": "<|reserved_special_token_227|>",
      "single_word": false,
      "lstrip": false,
      "rstrip": false,
      "normalized": false,
      "special": true
    },
    {
      "id": 240,
      "content": "<|reserved_special_token_228|>",
      "single_word": false,
      "lstrip": false,
      "rstrip": false,
      "normalized": false,
      "special": true
    },
    {
      "id": 241,
      "content": "<|reserved_special_token_229|>",
      "single_word": false,
      "lstrip": false,
      "rstrip": false,
      "normalized": false,
      "special": true
    },
    {
      "id": 242,
      "content": "<|reserved_special_token_230|>",
      "single_word": false,
      "lstrip": false,
      "rstrip": false,
      "normalized": false,
      "special": true
    },
    {
      "id": 243,
      "content": "<|reserved_special_token_231|>",
      "single_word": false,
      "lstrip": false,
      "rstrip": false,
      "normalized": false,
      "special": true
    },
    {
      "id": 244,
      "content": "<|reserved_special_token_232|>",
      "single_word": false,
      "lstrip": false,
      "rstrip": false,
      "normalized": false,
      "special": true
    },
    {
      "id": 245,
      "content": "<|reserved_special_token_233|>",
      "single_word": false,
      "lstrip": false,
      "rstrip": false,
      "normalized": false,
      "special": true
    },
    {
      "id": 246,
      "content": "<|reserved_special_token_234|>",
      "single_word": false,
      "lstrip": false,
      "rstrip": false,
      "normalized": false,
      "special": true
    },
    {
      "id": 247,
      "content": "<|reserved_special_token_235|>",
      "single_word": false,
      "lstrip": false,
      "rstrip": false,
      "normalized": false,
      "special": true
    },
    {
      "id": 248,
      "content": "<|reserved_special_token_236|>",
      "single_word": false,
      "lstrip": false,
      "rstrip": false,
      "normalized": false,
      "special": true
    },
    {
      "id": 249,
      "content": "<|reserved_special_token_237|>",
      "single_word": false,
      "lstrip": false,
      "rstrip": false,
      "normalized": false,
      "special": true
    },
    {
      "id": 250,
      "content": "<|reserved_special_token_238|>",
      "single_word": false,
      "lstrip": false,
      "rstrip": false,
      "normalized": false,
      "special": true
    },
    {
      "id": 251,
      "content": "<|reserved_special_token_239|>",
      "single_word": false,
      "lstrip": false,
      "rstrip": false,
      "normalized": false,
      "special": true
    },
    {
      "id": 252,
      "content": "<|reserved_special_token_240|>",
      "single_word": false,
      "lstrip": false,
      "rstrip": false,
      "normalized": false,
      "special": true
    },
    {
      "id": 253,
      "content": "<|reserved_special_token_241|>",
      "single_word": false,
      "lstrip": false,
      "rstrip": false,
      "normalized": false,
      "special": true
    },
    {
      "id": 254,
      "content": "<|reserved_special_token_242|>",
      "single_word": false,
      "lstrip": false,
      "rstrip": false,
      "normalized": false,
      "special": true
    },
    {
      "id": 255,
      "content": "<|reserved_special_token_243|>",
      "single_word": false,
      "lstrip": false,
      "rstrip": false,
      "normalized": false,
      "special": true
    }
  ],
  "normalizer": null,
  "pre_tokenizer": {
    "type": "Sequence",
    "pretokenizers": [
      {
        "type": "Split",
        "pattern": {
          "Regex": "(?i:'s|'t|'re|'ve|'m|'ll|'d)|[^\\r\\n\\p{L}\\p{N}]?\\p{L}+|\\p{N}{1,3}| ?[^\\s\\p{L}\\p{N}]+[\\r\\n]*|\\s*[\\r\\n]+|\\s+(?!\\S)|\\s+"
        },
        "behavior": "Isolated",
        "invert": false
      },
      {
        "type": "ByteLevel",
        "add_prefix_space": false,
        "trim_offsets": true,
        "use_regex": false
      }
    ]
  },
  "post_processor": {
    "type": "Sequence",
    "processors": [
      {
        "type": "ByteLevel",
        "add_prefix_space": true,
        "trim_offsets": false,
        "use_regex": true
      },
      {
        "type": "TemplateProcessing",
        "single": [
          {
            "SpecialToken": {
              "id": "<|begin_of_text|>",
              "type_id": 0
            }
          },
          {
            "Sequence": {
              "id": "A",
              "type_id": 0
            }
          }
        ],
        "pair": [
          {
            "SpecialToken": {
              "id": "<|begin_of_text|>",
              "type_id": 0
            }
          },
          {
            "Sequence": {
              "id": "A",
              "type_id": 0
            }
          },
          {
            "SpecialToken": {
              "id": "<|begin_of_text|>",
              "type_id": 1
            }
          },
          {
            "Sequence": {
              "id": "B",
              "type_id": 1
            }
          }
        ],
        "special_tokens": {
          "<|begin_of_text|>": {
            "id": "<|begin_of_text|>",
            "ids": [
              0
            ],
            "tokens": [
              "<|begin_of_text|>"
            ]
          }
        }
      }
    ]
  },
  "decoder": {
    "type": "ByteLevel",
    "add_prefix_space": true,
    "trim_offsets": true,
    "use_regex": true
  },
  "model": {
    "type": "BPE",
    "dropout": null,
    "unk_token": null,
    "continuing_subword_prefix": null,
    "end_of_word_suffix": null,
    "fuse_unk": false,
    "byte_fallback": false,
    "ignore_merges": true,
    "vocab": {
      "<|begin_of_text|>": 0,
      "<|end_of_text|>": 1,
      "<|finetune_right_pad_id|>": 2,
      "<|start_header_id|>": 3,
      "<|end_header_id|>": 4,
      "<|eom_id|>": 5,
      "<|eot_id|>": 6,
      "<|python_tag|>": 7,
      "<|begin_of_thought|>": 8,
      "<|end_of_thought|>": 9,
      "<|begin_of_solution|>": 10,
      "<|end_of_solution|>": 11,
      "<|reserved_special_token_0|>": 12,
      "<|reserved_special_token_1|>": 13,
      "<|reserved_special_token_2|>": 14,
      "<|reserved_special_token_3|>": 15,
      "<|reserved_special_token_4|>": 16,
      "<|reserved_special_token_5|>": 17,
      "<|reserved_special_token_6|>": 18,
      "<|reserved_special_token_7|>": 19,
      "<|reserved_special_token_8|>": 20,
      "<|reserved_special_token_9|>": 21,
      "<|reserved_special_token_10|>": 22,
      "<|reserved_special_token_11|>": 23,
      "<|reserved_special_token_12|>": 24,
      "<|reserved_special_token_13|>": 25,
      "<|reserved_special_token_14|>": 26,
      "<|reserved_special_token_15|>": 27,
      "<|reserved_special_token_16|>": 28,
      "<|reserved_special_token_17|>": 29,
      "<|reserved_special_token_18|>": 30,
      "<|reserved_special_token_19|>": 31,
      "<|reserved_special_token_20|>": 32,
      "<|reserved_special_token_21|>": 33,
      "<|reserved_special_token_22|>": 34,
      "<|reserved_special_token_23|>": 35,
      "<|reserved_special_token_24|>": 36,
      "<|reserved_special_token_25|>": 37,
      "<|reserved_special_token_26|>": 38,
      "<|reserved_special_token_27|>": 39,
      "<|reserved_special_token_28|>": 40,
      "<|reserved_special_token_29|>": 41,
      "<|reserved_special_token_30|>": 42,
      "<|reserved_special_token_31|>": 43,
      "<|reserved_special_token_32|>": 44,
      "<|reserved_special_token_33|>": 45,
      "<|reserved_special_token_34|>": 46,
      "<|reserved_special_token_35|>": 47,
      "<|reserved_special_token_36|>": 48,
      "<|reserved_special_token_37|>": 49,
      "<|reserved_special_token_38|>": 50,
      "<|reserved_special_token_39|>": 51,
      "<|reserved_special_token_40|>": 52,
      "<|reserved_special_token_41|>": 53,
      "<|reserved_special_token_42|>": 54,
      "<|reserved_special_token_43|>": 55,
      "<|reserved_special_token_44|>": 56,
      "<|reserved_special_token_45|>": 57,
      "<|reserved_special_token_46|>": 58,
      "<|reserved_special_token_47|>": 59,
      "<|reserved_special_token_48|>": 60,
      "<|reserved_special_token_49|>": 61,
      "<|reserved_special_token_50|>": 62,
      "<|reserved_special_token_51|>": 63,
      "<|reserved_special_token_52|>": 64,
      "<|reserved_special_token_53|>": 65,
      "<|reserved_special_token_54|>": 66,
      "<|reserved_special_token_55|>": 67,
      "<|reserved_special_token_56|>": 68,
      "<|reserved_special_token_57|>": 69,
      "<|reserved_special_token_58|>": 70,
      "<|reserved_special_token_59|>": 71,
      "<|reserved_special_token_60|>": 72,
      "<|reserved_special_token_61|>": 73,
      "<|reserved_special_token_62|>": 74,
      "<|reserved_special_token_63|>": 75,
      "<|reserved_special_token_64|>": 76,
      "<|reserved_special_token_65|>": 77,
      "<|reserved_special_token_66|>": 78,
      "<|reserved_special_token_67|>": 79,
      "<|reserved_special_token_68|>": 80,
      "<|reserved_special_token_69|>": 81,
      "<|reserved_special_token_70|>": 82,
      "<|reserved_special_token_71|>": 83,
      "<|reserved_special_token_72|>": 84,
      "<|reserved_special_token_73|>": 85,
      "<|reserved_special_token_74|>": 86,
      "<|reserved_special_token_75|>": 87,
      "<|reserved_special_token_76|>": 88,
      "<|reserved_special_token_77|>": 89,
      "<|reserved_special_token_78|>": 90,
      "<|reserved_special_token_79|>": 91,
      "<|reserved_special_token_80|>": 92,
      "<|reserved_special_token_81|>": 93,
      "<|reserved_special_token_82|>": 94,
      "<|reserved_special_token_83|>": 95,
      "<|reserved_special_token_84|>": 96,
      "<|reserved_special_token_85|>": 97,
      "<|reserved_special_token_86|>": 98,
      "<|reserved_special_token_87|>": 99,
      "<|reserved_special_token_88|>": 100,
      "<|reserved_special_token_89|>": 101,
      "<|reserved_special_token_90|>": 102,
      "<|reserved_special_token_91|>": 103,
      "<|reserved_special_token_92|>": 104,
      "<|reserved_special_token_93|>": 105,
      "<|reserved_special_token_94|>": 106,
      "<|reserved_special_token_95|>": 107,
      "<|reserved_special_token_96|>": 108,
      "<|reserved_special_token_97|>": 109,
      "<|reserved_special_token_98|>": 110,
      "<|reserved_special_token_99|>": 111,
      "<|reserved_special_token_100|>": 112,
      "<|reserved_special_token_101|>": 113,
      "<|reserved_special_token_102|>": 114,
      "<|reserved_special_token_103|>": 115,
      "<|reserved_special_token_104|>": 116,
      "<|reserved_special_token_105|>": 117,
      "<|reserved_special_token_106|>": 118,
      "<|reserved_special_token_107|>": 119,
      "<|reserved_special_token_108|>": 120,
      "<|reserved_special_token_109|>": 121,
      "<|reserved_special_token_110|>": 122,
      "<|reserved_special_token_111|>": 123,
      "<|reserved_special_token_112|>": 124,
      "<|reserved_special_token_113|>": 125,
      "<|reserved_special_token_114|>": 126,
      "<|reserved_special_token_115|>": 127,
      "<|reserved_special_token_116|>": 128,
      "<|reserved_special_token_117|>": 129,
      "<|reserved_special_token_118|>": 130,
      "<|reserved_special_token_119|>": 131,
      "<|reserved_special_token_120|>": 132,
      "<|reserved_special_token_121|>": 133,
      "<|reserved_special_token_122|>": 134,
      "<|reserved_special_token_123|>": 135,
      "<|reserved_special_token_124|>": 136,
      "<|reserved_special_token_125|>": 137,
      "<|reserved_special_token_126|>": 138,
      "<|reserved_special_token_127|>": 139,
      "<|reserved_special_token_128|>": 140,
      "<|reserved_special_token_129|>": 141,
      "<|reserved_special_token_130|>": 142,
      "<|reserved_special_token_131|>": 143,
      "<|reserved_special_token_132|>": 144,
      "<|reserved_special_token_133|>": 145,
      "<|reserved_special_token_134|>": 146,
      "<|reserved_special_token_135|>": 147,
      "<|reserved_special_token_136|>": 148,
      "<|reserved_special_token_137|>": 149,
      "<|reserved_special_token_138|>": 150,
      "<|reserved_special_token_139|>": 151,
      "<|reserved_special_token_140|>": 152,
      "<|reserved_special_token_141|>": 153,
      "<|reserved_special_token_142|>": 154,
      "<|reserved_special_token_143|>": 155,
      "<|reserved_special_token_144|>": 156,
      "<|reserved_special_token_145|>": 157,
      "<|reserved_special_token_146|>": 158,
      "<|reserved_special_token_147|>": 159,
      "<|reserved_special_token_148|>": 160,
      "<|reserved_special_token_149|>": 161,
      "<|reserved_special_token_150|>": 162,
      "<|reserved_special_token_151|>": 163,
      "<|reserved_special_token_152|>": 164,
      "<|reserved_special_token_153|>": 165,
      "<|reserved_special_token_154|>": 166,
      "<|reserved_special_token_155|>": 167,
      "<|reserved_special_token_156|>": 168,
      "<|reserved_special_token_157|>": 169,
      "<|reserved_special_token_158|>": 170,
      "<|reserved_special_token_159|>": 171,
      "<|reserved_special_token_160|>": 172,
      "<|reserved_special_token_161|>": 173,
      "<|reserved_special_token_162|>": 174,
      "<|reserved_special_token_163|>": 175,
      "<|reserved_special_token_164|>": 176,
      "<|reserved_special_token_165|>": 177,
      "<|reserved_special_token_166|>": 178,
      "<|reserved_special_token_167|>": 179,
      "<|reserved_special_token_168|>": 180,
      "<|reserved_special_token_169|>": 181,
      "<|reserved_special_token_170|>": 182,
      "<|reserved_special_token_171|>": 183,
      "<|reserved_special_token_172|>": 184,
      "<|reserved_special_token_173|>": 185,
      "<|reserved_special_token_174|>": 186,
      "<|reserved_special_token_175|>": 187,
      "<|reserved_special_token_176|>": 188,
      "<|reserved_special_token_177|>": 189,
      "<|reserved_special_token_178|>": 190,
      "<|reserved_special_token_179|>": 191,
      "<|reserved_special_token_180|>": 192,
      "<|reserved_special_token_181|>": 193,
      "<|reserved_special_token_182|>": 194,
      "<|reserved_special_token_183|>": 195,
      "<|reserved_special_token_184|>": 196,
      "<|reserved_special_token_185|>": 197,
      "<|reserved_special_token_186|>": 198,
      "<|reserved_special_token_187|>": 199,
      "<|reserved_special_token_188|>": 200,
      "<|reserved_special_token_189|>": 201,
      "<|reserved_special_token_190|>": 202,
      "<|reserved_special_token_191|>": 203,
      "<|reserved_special_token_192|>": 204,
      "<|reserved_special_token_193|>": 205,
      "<|reserved_special_token_194|>": 206,
      "<|reserved_special_token_195|>": 207,
      "<|reserved_special_token_196|>": 208,
      "<|reserved_special_token_197|>": 209,
      "<|reserved_special_token_198|>": 210,
      "<|reserved_special_token_199|>": 211,
      "<|reserved_special_token_200|>": 212,
      "<|reserved_special_token_201|>": 213,
      "<|reserved_special_token_202|>": 214,
      "<|reserved_special_token_203|>": 215,
      "<|reserved_special_token_204|>": 216,
      "<|reserved_special_token_205|>": 217,
      "<|reserved_special_token_206|>": 218,
      "<|reserved_special_token_207|>": 219,
      "<|reserved_special_token_208|>": 220,
      "<|reserved_special_token_209|>": 221,
      "<|reserved_special_token_210|>": 222,
      "<|reserved_special_token_211|>": 223,
      "<|reserved_special_token_212|>": 224,
      "<|reserved_special_token_213|>": 225,
      "<|reserved_special_token_214|>": 226,
      "<|reserved_special_token_215|>": 227,
      "<|reserved_special_token_216|>": 228,
      "<|reserved_special_token_217|>": 229,
      "<|reserved_special_token_218|>": 230,
      "<|reserved_special_token_219|>": 231,
      "<|reserved_special_token_220|>": 232,
      "<|reserved_special_token_221|>": 233,
      "<|reserved_special_token_222|>": 234,
      "<|reserved_special_token_223|>": 235,
      "<|reserved_special_token_224|>": 236,
      "<|reserved_special_token_225|>": 237,
      "<|reserved_special_token_226|>": 238,
      "<|reserved_special_token_227|>": 239,
      "<|reserved_special_token_228|>": 240,
      "<|reserved_special_token_229|>": 241,
      "<|reserved_special_token_230|>": 242,
      "<|reserved_special_token_231|>": 243,
      "<|reserved_special_token_232|>": 244,
      "<|reserved_special_token_233|>": 245,
      "<|reserved_special_token_234|>": 246,
      "<|reserved_special_token_235|>": 247,
      "<|reserved_special_token_236|>": 248,
      "<|reserved_special_token_237|>": 249,
      "<|reserved_special_token_238|>": 250,
      "<|reserved_special_token_239|>": 251,
      "<|reserved_special_token_240|>": 252,
      "<|reserved_special_token_241|>": 253,
      "<|reserved_special_token_242|>": 254,
      "<|reserved_special_token_243|>": 255,
      "!": 256,
      "\"": 257,
      "#": 258,
      "$": 259,
      "%": 260,
      "&": 261,
      "'": 262,
      "(": 263,
      ")": 264,
      "*": 265,
      "+": 266,
      ",": 267,
      "-": 268,
      ".": 269,
      "/": 270,
      "0": 271,
      "1": 272,
      "2": 273,
      "3": 274,
      "4": 275,
      "5": 276,
      "6": 277,
      "7": 278,
      "8": 279,
      "9": 280,
      ":": 281,
      ";": 282,
      "<": 283,
      "=": 284,
      ">": 285,
      "?": 286,
      "@": 287,
      "A": 288,
      "B": 289,
      "C": 290,
      "D": 291,
      "E": 292,
      "F": 293,
      "G": 294,
      "H": 295,
      "I": 296,
      "J": 297,
      "K": 298,
      "L": 299,
      "M": 300,
      "N": 301,
      "O": 302,
      "P": 303,
      "Q": 304,
      "R": 305,
      "S": 306,
      "T": 307,
      "U": 308,
      "V": 309,
      "W": 310,
      "X": 311,
      "Y": 312,
      "Z": 313,
      "[": 314,
      "\\": 315,
      "]": 316,
      "^": 317,
      "_": 318,
      "`": 319,
      "a": 320,
      "b": 321,
      "c": 322,
      "d": 323,
      "e": 324,
      "f": 325,
      "g": 326,
      "h": 327,
      "i": 328,
      "j": 329,
      "k": 330,
      "l": 331,
      "m": 332,
      "n": 333,
      "o": 334,
      "p": 335,
      "q": 336,
      "r": 337,
      "s": 338,
      "t": 339,
      "u": 340,
      "v": 341,
      "w": 342,
      "x": 343,
      "y": 344,
      "z": 345,
      "{": 346,
      "|": 347,
      "}": 348,
      "~": 349,
      "¡": 350,
      "¢": 351,
      "£": 352,
      "¤": 353,
      "¥": 354,
      "¦": 355,
      "§": 356,
      "¨": 357,
      "©": 358,
      "ª": 359,
      "«": 360,
      "¬": 361,
      "®": 362,
      "¯": 363,
      "°": 364,
      "±": 365,
      "²": 366,
      "³": 367,
      "´": 368,
      "µ": 369,
      "¶": 370,
      "·": 371,
      "¸": 372,
      "¹": 373,
      "º": 374,
      "»": 375,
      "¼": 376,
      "½": 377,
      "¾": 378,
      "¿": 379,
      "À": 380,
      "Á": 381,
      "Â": 382,
      "Ã": 383,
      "Ä": 384,
      "Å": 385,
      "Æ": 386,
      "Ç": 387,
      "È": 388,
      "É": 389,
      "Ê": 390,
      "Ë": 391,
      "Ì": 392,
      "Í": 393,
      "Î": 394,
      "Ï": 395,
      "Ð": 396,
      "Ñ": 397,
      "Ò": 398,
      "Ó": 399,
      "Ô": 400,
      "Õ": 401,
      "Ö": 402,
      "×": 403,
      "Ø": 404,
      "Ù": 405,
      "Ú": 406,
      "Û": 407,
      "Ü": 408,
      "Ý": 409,
      "Þ": 410,
      "ß": 411,
      "à": 412,
      "á": 413,
      "â": 414,
      "ã": 415,
      "ä": 416,
      "å": 417,
      "æ": 418,
      "ç": 419,
      "è": 420,
      "é": 421,
      "ê": 422,
      "ë": 423,
      "ì": 424,
      "í": 425,
      "î": 426,
      "ï": 427,
      "ð": 428,
      "ñ": 429,
      "ò": 430,
      "ó": 431,
      "ô": 432,
      "õ": 433,
      "ö": 434,
      "÷": 435,
      "ø": 436,
      "ù": 437,
      "ú": 438,
      "û": 439,
      "ü": 440,
      "ý": 441,
      "þ": 442,
      "ÿ": 443,
      "Ā": 444,
      "ā": 445,
      "Ă": 446,
      "ă": 447,
      "Ą": 448,
      "ą": 449,
      "Ć": 450,
      "ć": 451,
      "Ĉ": 452,
      "ĉ": 453,
      "Ċ": 454,
      "ċ": 455,
      "Č": 456,
      "č": 457,
      "Ď": 458,
      "ď": 459,
      "Đ": 460,
      "đ": 461,
      "Ē": 462,
      "ē": 463,
      "Ĕ": 464,
      "ĕ": 465,
      "Ė": 466,
      "ė": 467,
      "Ę": 468,
      "ę": 469,
      "Ě": 470,
      "ě": 471,
      "Ĝ": 472,
      "ĝ": 473,
      "Ğ": 474,
      "ğ": 475,
      "Ġ": 476,
      "ġ": 477,
      "Ģ": 478,
      "ģ": 479,
      "Ĥ": 480,
      "ĥ": 481,
      "Ħ": 482,
      "ħ": 483,
      "Ĩ": 484,
      "ĩ": 485,
      "Ī": 486,
      "ī": 487,
      "Ĭ": 488,
      "ĭ": 489,
      "Į": 490,
      "į": 491,
      "İ": 492,
      "ı": 493,
      "Ĳ": 494,
      "ĳ": 495,
      "Ĵ": 496,
      "ĵ": 497,
      "Ķ": 498,
      "ķ": 499,
      "ĸ": 500,
      "Ĺ": 501,
      "ĺ": 502,
      "Ļ": 503,
      "ļ": 504,
      "Ľ": 505,
      "ľ": 506,
      "Ŀ": 507,
      "ŀ": 508,
      "Ł": 509,
      "ł": 510,
      "Ń": 511,
      "Ġt": 512,
      "Ġa": 513,
      "in": 514,
      "he": 515,
      "re": 516,
      "on": 517,
      "er": 518,
      "Ġthe": 519,
      "at": 520,
      "Ġs": 521,
      "Ġo": 522,
      "en": 523,
      "Ġc": 524,
      "es": 525,
      "nd": 526,
      "it": 527,
      "or": 528,
      "is": 529,
      "Ġw": 530,
      "al": 531,
      "ing": 532,
      "Ġp": 533,
      "an": 534,
      "Ġf": 535,
      "Ġb": 536,
      "ou": 537,
      "Ġin": 538,
      "ed": 539,
      "Ġof": 540,
      "ar": 541,
      "ion": 542,
      "Ġand": 543,
      "Ġm": 544,
      "ic": 545,
      "Ġd": 546,
      "Ġto": 547,
      "le": 548,
      "ro": 549,
      "ent": 550,
      "ct": 551,
      "Ġe": 552,
      "as": 553,
      "Ġh": 554,
      "Ġth": 555,
      "Ġre": 556,
      "ve": 557,
      "om": 558,
      "il": 559,
      "st": 560,
      "Ġl": 561,
      "Ġn": 562,
      ".Ċ": 563,
      "et": 564,
      "ol": 565,
      "ation": 566,
      "ĠĠ": 567,
      "Ġis": 568,
      "ly": 569,
      "ĠT": 570,
      "ra": 571,
      "se": 572,
      "id": 573,
      "im": 574,
      "Ġg": 575,
      "ce": 576,
      "ch": 577,
      "ow": 578,
      "Ġu": 579,
      "ig": 580,
      "Ġbe": 581,
      "ot": 582,
      "ut": 583,
      "ur": 584,
      "Ġfor": 585,
      "Ġy": 586,
      "âĢ": 587,
      "Ġst": 588,
      "ĠA": 589,
      "ĠS": 590,
      "ver": 591,
      "ul": 592,
      "Ġon": 593,
      "ĠI": 594,
      "ĠC": 595,
      "Ġyou": 596,
      "ir": 597,
      "Ġcon": 598,
      "ay": 599,
      "am": 600,
      "el": 601,
      "Ġthat": 602,
      "ith": 603,
      "if": 604,
      "Ġpro": 605,
      "Ġan": 606,
      "Ġas": 607,
      "Ġex": 608,
      "Ġwith": 609,
      "Ġor": 610,
      "ad": 611,
      "ess": 612,
      "ge": 613,
      "ter": 614,
      "her": 615,
      "Ġare": 616,
      "od": 617,
      "ment": 618,
      "ers": 619,
      "Ġal": 620,
      "Ġit": 621,
      "ate": 622,
      "ĠP": 623,
      "ect": 624,
      "ies": 625,
      "ist": 626,
      "Ġwh": 627,
      "th": 628,
      "ab": 629,
      "Ġ(": 630,
      "ĠM": 631,
      "Ġde": 632,
      "ive": 633,
      "ĠThe": 634,
      "Ġcom": 635,
      "um": 636,
      "res": 637,
      "qu": 638,
      "us": 639,
      "ity": 640,
      "op": 641,
      "Ġv": 642,
      "iv": 643,
      "ud": 644,
      "ĠB": 645,
      "Ġhe": 646,
      "Ġsu": 647,
      "ore": 648,
      "Ġwe": 649,
      "ill": 650,
      "ke": 651,
      "est": 652,
      "pp": 653,
      "ĠW": 654,
      "em": 655,
      "ant": 656,
      "os": 657,
      "ial": 658,
      "ac": 659,
      "nt": 660,
      "ĠE": 661,
      "igh": 662,
      "and": 663,
      "ain": 664,
      "oc": 665,
      "Ġcan": 666,
      "ĠD": 667,
      "rom": 668,
      "Ġch": 669,
      "ĠH": 670,
      "ld": 671,
      "ĠĠĠĠ": 672,
      "ical": 673,
      "ĠF": 674,
      "ure": 675,
      "Ġby": 676,
      "ort": 677,
      "Ġr": 678,
      "Ġen": 679,
      "pl": 680,
      "ĠR": 681,
      "Ġle": 682,
      "Ġne": 683,
      "un": 684,
      "âĢĻ": 685,
      "ri": 686,
      "ions": 687,
      "Ġha": 688,
      "Ġfrom": 689,
      "og": 690,
      "art": 691,
      "ĊĊ": 692,
      "Ġat": 693,
      "Ġse": 694,
      "Ġsh": 695,
      "pt": 696,
      "ight": 697,
      "ag": 698,
      "ere": 699,
      "ĠL": 700,
      "pe": 701,
      "Ġwor": 702,
      "Ġint": 703,
      "per": 704,
      "Ġab": 705,
      "du": 706,
      "Ġyour": 707,
      "Ġim": 708,
      "rou": 709,
      "ine": 710,
      "Ġnot": 711,
      "our": 712,
      "Ġthis": 713,
      "iz": 714,
      "ĠN": 715,
      "act": 716,
      "ĠG": 717,
      "all": 718,
      "out": 719,
      "age": 720,
      "Ġus": 721,
      "ĠâĢ": 722,
      "Ġhave": 723,
      "gh": 724,
      "ations": 725,
      "Ġpl": 726,
      "ome": 727,
      "ide": 728,
      "Ġwas": 729,
      "ated": 730,
      "ard": 731,
      "are": 732,
      "Ġcont": 733,
      "--": 734,
      "Ġcomp": 735,
      "20": 736,
      "Ġk": 737,
      "ult": 738,
      "ost": 739,
      "Ġad": 740,
      "Ġtheir": 741,
      "ff": 742,
      "cl": 743,
      "ĠO": 744,
      "ru": 745,
      "ould": 746,
      "ich": 747,
      "ous": 748,
      "ell": 749,
      "ther": 750,
      "Ġte": 751,
      "ak": 752,
      "ans": 753,
      "end": 754,
      "ust": 755,
      "ib": 756,
      "ents": 757,
      "ok": 758,
      "Ġres": 759,
      "ip": 760,
      "rit": 761,
      "able": 762,
      "The": 763,
      "cc": 764,
      "Ġwhe": 765,
      "ance": 766,
      "vel": 767,
      "orm": 768,
      "ĠIn": 769,
      "ast": 770,
      "Ġdis": 771,
      "ĠU": 772,
      "ie": 773,
      "ĠTh": 774,
      "ence": 775,
      "ary": 776,
      "ap": 777,
      "ach": 778,
      "âĢĻs": 779,
      ".ĊĊ": 780,
      "'s": 781,
      "Ġall": 782,
      "ual": 783,
      "ong": 784,
      "ind": 785,
      "Ġwill": 786,
      "ry": 787,
      "ep": 788,
      "Ġthey": 789,
      "ire": 790,
      "Ġimp": 791,
      "ear": 792,
      "ign": 793,
      "ction": 794,
      "Ġj": 795,
      "Ġun": 796,
      "ood": 797,
      "Ġdo": 798,
      "Ġwhich": 799,
      "ory": 800,
      "Ġstud": 801,
      "ks": 802,
      "Ġme": 803,
      "Ġcl": 804,
      "reat": 805,
      "ces": 806,
      "ia": 807,
      "ĠJ": 808,
      "ook": 809,
      "so": 810,
      "Ġmore": 811,
      "Ġman": 812,
      "Ġapp": 813,
      "Ġhas": 814,
      "Ġ=": 815,
      "ress": 816,
      "ass": 817,
      "Ġar": 818,
      "ition": 819,
      "ake": 820,
      "one": 821,
      "av": 822,
      "ice": 823,
      "Ġother": 824,
      "ĠĠĠ": 825,
      "ue": 826,
      "Ġabout": 827,
      "ber": 828,
      "Ġper": 829,
      "ime": 830,
      "ater": 831,
      "ors": 832,
      "ike": 833,
      "Ġ\"": 834,
      "Ġone": 835,
      "ang": 836,
      "nder": 837,
      "Ġsp": 838,
      "ens": 839,
      "Ġpre": 840,
      "ail": 841,
      "int": 842,
      "ild": 843,
      "Ġqu": 844,
      "form": 845,
      "ose": 846,
      "ract": 847,
      "ase": 848,
      "Ġalso": 849,
      "ile": 850,
      "Ġpart": 851,
      "now": 852,
      "ĠSt": 853,
      "very": 854,
      "Ġbut": 855,
      "Ġout": 856,
      "ci": 857,
      "iff": 858,
      "Ġev": 859,
      "olog": 860,
      "Ġsy": 861,
      "Ġcomm": 862,
      "clud": 863,
      "ace": 864,
      "Ġso": 865,
      "19": 866,
      "ord": 867,
      "xt": 868,
      "low": 869,
      "ount": 870,
      "ack": 871,
      "ree": 872,
      "Ġthem": 873,
      "ph": 874,
      "Ġhow": 875,
      "00": 876,
      "ame": 877,
      "ric": 878,
      "au": 879,
      "ish": 880,
      "ific": 881,
      "Ġrel": 882,
      "Ġinto": 883,
      "Ġspe": 884,
      "ities": 885,
      "Ġdiff": 886,
      "Ġro": 887,
      "?Ċ": 888,
      "ub": 889,
      "Ġpe": 890,
      "Ġthese": 891,
      "âĢĿ": 892,
      "rough": 893,
      "ative": 894,
      "ound": 895,
      "Ġunder": 896,
      "Ġcol": 897,
      "ĠIt": 898,
      "Ġlike": 899,
      "Ġem": 900,
      "ĠThis": 901,
      "ings": 902,
      "ys": 903,
      "ays": 904,
      "Ġfe": 905,
      "ments": 906,
      "..": 907,
      "ating": 908,
      "Ġup": 909,
      "Ġ-": 910,
      "Ġtra": 911,
      ":Ċ": 912,
      "ove": 913,
      "Ġbet": 914,
      "ject": 915,
      "ms": 916,
      "Ġknow": 917,
      "ĠK": 918,
      "ates": 919,
      "cre": 920,
      "ple": 921,
      "Ġits": 922,
      "ics": 923,
      "ite": 924,
      "Ġinclud": 925,
      "ari": 926,
      "Ġhel": 927,
      "ne": 928,
      "Ġpr": 929,
      "Ġsome": 930,
      "Ġcons": 931,
      "ĠCh": 932,
      "we": 933,
      "Ġacc": 934,
      "con": 935,
      "Ġover": 936,
      "lect": 937,
      "Ġour": 938,
      "Ġbec": 939,
      "ning": 940,
      "Ġwere": 941,
      "Ġtime": 942,
      "Ġph": 943,
      "ool": 944,
      "Ġwho": 945,
      "Ġuse": 946,
      "cess": 947,
      "Ġhelp": 948,
      "Ġmay": 949,
      "Ġwhen": 950,
      "vers": 951,
      "Ġif": 952,
      "alth": 953,
      "Ġinter": 954,
      "----": 955,
      "les": 956,
      "Ġact": 957,
      "ally": 958,
      "Ġtr": 959,
      "Ġwork": 960,
      "ll": 961,
      "ĠY": 962,
      "ople": 963,
      "Ġdes": 964,
      "ough": 965,
      "ĠV": 966,
      "Ġind": 967,
      "ĠâĢľ": 968,
      "erv": 969,
      "Ġext": 970,
      "Ġsuch": 971,
      "Ġthere": 972,
      "Ġrec": 973,
      "te": 974,
      "velop": 975,
      "ons": 976,
      "ffect": 977,
      "ng": 978,
      "Ġgo": 979,
      "stem": 980,
      "Ġexam": 981,
      "Ġthan": 982,
      "ular": 983,
      "ob": 984,
      "ns": 985,
      "Ġra": 986,
      "ath": 987,
      "Ġdiffere": 988,
      "Ġag": 989,
      "ov": 990,
      "Ġneed": 991,
      "row": 992,
      "Ġam": 993,
      ")Ċ": 994,
      "ful": 995,
      "eth": 996,
      "lic": 997,
      "Ġthrough": 998,
      "ures": 999,
      "Ġtw": 1000,
      "201": 1001,
      "hat": 1002,
      "Ġnum": 1003,
      "Ġpeople": 1004,
      "uring": 1005,
      "ility": 1006,
      "Ġnew": 1007,
      "Ġprov": 1008,
      "irst": 1009,
      "Ġhis": 1010,
      "Ġexpl": 1011,
      "##": 1012,
      "chn": 1013,
      "ian": 1014,
      "10": 1015,
      "Ġsub": 1016,
      "cial": 1017,
      "Ġwhat": 1018,
      "Ġdi": 1019,
      "Ġdevelop": 1020,
      "ause": 1021,
      "Ġany": 1022,
      "als": 1023,
      "Ġgen": 1024,
      "Ġbl": 1025,
      "rib": 1026,
      "ced": 1027,
      "Ġass": 1028,
      "__": 1029,
      "ef": 1030,
      "Ġused": 1031,
      "Ġyear": 1032,
      "Ġdet": 1033,
      "Ġmost": 1034,
      "Ġac": 1035,
      "Ġreg": 1036,
      "round": 1037,
      "ĠĠĠĠĠĠĠ": 1038,
      "Ġadd": 1039,
      ").": 1040,
      "chool": 1041,
      "red": 1042,
      "ible": 1043,
      "Ġbeen": 1044,
      "Ġinv": 1045,
      "ark": 1046,
      "ise": 1047,
      "ween": 1048,
      "ational": 1049,
      "Ġprodu": 1050,
      "pect": 1051,
      "ange": 1052,
      "Ġstudents": 1053,
      "oth": 1054,
      "Ġoff": 1055,
      "stand": 1056,
      "ife": 1057,
      "Ġshould": 1058,
      "Ġlear": 1059,
      "Ġwrit": 1060,
      "cept": 1061,
      "Ġsystem": 1062,
      "Ġbetween": 1063,
      "Ġpos": 1064,
      "Ġrep": 1065,
      "ren": 1066,
      "mer": 1067,
      "ert": 1068,
      "erm": 1069,
      "),": 1070,
      "Ġco": 1071,
      "Ġhealth": 1072,
      "Ġob": 1073,
      "ink": 1074,
      "uc": 1075,
      "ble": 1076,
      "ower": 1077,
      "ased": 1078,
      "Ġtwo": 1079,
      "its": 1080,
      "ution": 1081,
      "Ġmany": 1082,
      "Ġvari": 1083,
      "ten": 1084,
      "Ġsc": 1085,
      "Ġpers": 1086,
      "ss": 1087,
      "sel": 1088,
      "Ġess": 1089,
      "ram": 1090,
      "ds": 1091,
      "ata": 1092,
      "Ġpo": 1093,
      "Ġsa": 1094,
      "Ġpres": 1095,
      "Ġexper": 1096,
      "cy": 1097,
      "Ġtrans": 1098,
      "Ġtechn": 1099,
      "Ġno": 1100,
      "Ġfirst": 1101,
      "Ġinf": 1102,
      "In": 1103,
      "Ġimport": 1104,
      "arch": 1105,
      "Ġform": 1106,
      "ĠâĢĵ": 1107,
      "ology": 1108,
      "Âł": 1109,
      "Ġmod": 1110,
      "ft": 1111,
      "ict": 1112,
      "ential": 1113,
      "Ġdifferent": 1114,
      "ets": 1115,
      "ural": 1116,
      "hed": 1117,
      "Ġmake": 1118,
      "Ġty": 1119,
      "erg": 1120,
      "Ġrem": 1121,
      "eg": 1122,
      "fter": 1123,
      "Ġsoc": 1124,
      "ize": 1125,
      "Ġchild": 1126,
      "hes": 1127,
      "Ġinst": 1128,
      "Ġsign": 1129,
      "Ġval": 1130,
      "Ġwould": 1131,
      "ues": 1132,
      "ĠUn": 1133,
      "Ġwell": 1134,
      "Ġpol": 1135,
      "aking": 1136,
      "ages": 1137,
      "Ġsim": 1138,
      "Ġsupp": 1139,
      "Ġatt": 1140,
      "Ġwhere": 1141,
      "Ġeach": 1142,
      "ism": 1143,
      "own": 1144,
      "ness": 1145,
      "gan": 1146,
      "Ġsur": 1147,
      "Ġart": 1148,
      "ines": 1149,
      "fore": 1150,
      "Ġsol": 1151,
      "Ġonly": 1152,
      "Ġschool": 1153,
      "ting": 1154,
      "ature": 1155,
      "hen": 1156,
      "ick": 1157,
      "Ġworld": 1158,
      "Ġsm": 1159,
      "ĠPro": 1160,
      "ives": 1161,
      "ases": 1162,
      "Ġexp": 1163,
      "Ġhigh": 1164,
      "Ġfol": 1165,
      "Ġfl": 1166,
      "Ġdisc": 1167,
      "ew": 1168,
      "Ġevery": 1169,
      "iss": 1170,
      "iew": 1171,
      "iqu": 1172,
      "arg": 1173,
      "Ġunderstand": 1174,
      "Ġjust": 1175,
      "ily": 1176,
      "aw": 1177,
      "Ġgra": 1178,
      "Ġspec": 1179,
      "ond": 1180,
      "tern": 1181,
      "ices": 1182,
      "Ġke": 1183,
      "Ġprocess": 1184,
      "Ġhad": 1185,
      "ps": 1186,
      "Ġfun": 1187,
      "ck": 1188,
      "ward": 1189,
      "ious": 1190,
      "Ġrese": 1191,
      "ruct": 1192,
      "Ġstr": 1193,
      "led": 1194,
      "oy": 1195,
      "Ġed": 1196,
      "ever": 1197,
      "Ġeffect": 1198,
      "Ġmed": 1199,
      "Ġher": 1200,
      "Ġref": 1201,
      "Ġins": 1202,
      "vent": 1203,
      "ivid": 1204,
      "Ġget": 1205,
      "ts": 1206,
      "Ġbu": 1207,
      "Ġhum": 1208,
      "Ġcommun": 1209,
      "Ġusing": 1210,
      "ident": 1211,
      "Ġcre": 1212,
      "Ġincre": 1213,
      "ety": 1214,
      "ĠHow": 1215,
      "Ġwater": 1216,
      "Ġinform": 1217,
      "ants": 1218,
      "Ġdef": 1219,
      "200": 1220,
      "ied": 1221,
      "hip": 1222,
      "Ġcould": 1223,
      "Ġread": 1224,
      "Ġcur": 1225,
      "Ġequ": 1226,
      "ically": 1227,
      "ade": 1228,
      "ered": 1229,
      "ĠCon": 1230,
      "ins": 1231,
      "Ġdec": 1232,
      "wn": 1233,
      "ĠRe": 1234,
      "ists": 1235,
      "Ġsk": 1236,
      "Ġappro": 1237,
      "rodu": 1238,
      "Ġdata": 1239,
      "18": 1240,
      "iron": 1241,
      "ized": 1242,
      "ited": 1243,
      "Ġdep": 1244,
      "old": 1245,
      "Ġfollow": 1246,
      "Ġwhile": 1247,
      "urn": 1248,
      "Ġfact": 1249,
      "Ġmy": 1250,
      "ork": 1251,
      "Ġgener": 1252,
      "Ġdist": 1253,
      "ection": 1254,
      "ples": 1255,
      "Ġeven": 1256,
      "Ġtext": 1257,
      "ron": 1258,
      "Ġway": 1259,
      "com": 1260,
      "ĠHe": 1261,
      "**": 1262,
      "eng": 1263,
      "Ġcomple": 1264,
      "Ġfind": 1265,
      "Ġeng": 1266,
      "Ġresult": 1267,
      "Ġperson": 1268,
      "Ġ$": 1269,
      "Ġrequ": 1270,
      "Ġimportant": 1271,
      "Ġlife": 1272,
      "Ġpat": 1273,
      "Ġear": 1274,
      "ality": 1275,
      "uch": 1276,
      "Ġhist": 1277,
      "other": 1278,
      "Ġlong": 1279,
      "ĠFor": 1280,
      "Ġdoes": 1281,
      "Ġduring": 1282,
      "Ġtop": 1283,
      "ĠWe": 1284,
      "Ġav": 1285,
      "Ġcar": 1286,
      "Ġthen": 1287,
      "dition": 1288,
      "Ġcall": 1289,
      "ĠCom": 1290,
      "Ġlead": 1291,
      "Ġmain": 1292,
      "Ġcount": 1293,
      "Ġsee": 1294,
      "Ġmin": 1295,
      "Ġyears": 1296,
      "Ġnumber": 1297,
      "Ġcent": 1298,
      "Ġ&": 1299,
      "Ġpartic": 1300,
      "arm": 1301,
      "ually": 1302,
      "Ġent": 1303,
      "ient": 1304,
      "Ġset": 1305,
      "ĠAs": 1306,
      "imes": 1307,
      "ional": 1308,
      "Ġca": 1309,
      "Ġafter": 1310,
      "irect": 1311,
      "Ġboth": 1312,
      "Ġaut": 1313,
      "ax": 1314,
      "Ġ/": 1315,
      "Ġpract": 1316,
      "Ġbecause": 1317,
      "Ġright": 1318,
      "Ġmat": 1319,
      "Th": 1320,
      "12": 1321,
      "Ġprog": 1322,
      "ĠAn": 1323,
      "ving": 1324,
      "ĠAl": 1325,
      "get": 1326,
      "Ġloc": 1327,
      "ody": 1328,
      "ien": 1329,
      "Ġcour": 1330,
      "Ġinclude": 1331,
      "Ġgrow": 1332,
      "viron": 1333,
      "Ġproble": 1334,
      "hem": 1335,
      "Ġfound": 1336,
      "meric": 1337,
      "nce": 1338,
      "ividual": 1339,
      "Ġfam": 1340,
      "Ġ+": 1341,
      "idd": 1342,
      "ands": 1343,
      "Ġinformation": 1344,
      "self": 1345,
      "Ġthose": 1346,
      "Ġchar": 1347,
      "read": 1348,
      "Ġextract": 1349,
      "Ġgl": 1350,
      "Ġcor": 1351,
      "Ġshe": 1352,
      "Ġstudy": 1353,
      "Ġbefore": 1354,
      "oid": 1355,
      "cer": 1356,
      "Ġweb": 1357,
      "ĠThey": 1358,
      "ering": 1359,
      "Ġvery": 1360,
      "Ġide": 1361,
      "Ġclass": 1362,
      "ĠĠĠĠĠĠĠĠ": 1363,
      "Ġprovid": 1364,
      "Ġresp": 1365,
      "--------": 1366,
      "Ġindividual": 1367,
      "Ġgu": 1368,
      "Ġwithin": 1369,
      "rent": 1370,
      "ocus": 1371,
      "de": 1372,
      "Ġbeing": 1373,
      "Ġdesign": 1374,
      "gg": 1375,
      "Ġstart": 1376,
      "Ġlevel": 1377,
      "Ġown": 1378,
      "Ġpower": 1379,
      "uss": 1380,
      "Ġcult": 1381,
      "Ġresearch": 1382,
      "Ġexample": 1383,
      ":ĊĊ": 1384,
      "ethod": 1385,
      "ved": 1386,
      "Ġanal": 1387,
      "ital": 1388,
      "akes": 1389,
      "Ġgreat": 1390,
      "Ġquest": 1391,
      "ivers": 1392,
      "ute": 1393,
      "Ġback": 1394,
      "Ġmon": 1395,
      "Ġlit": 1396,
      "Ġshow": 1397,
      "ĠAmeric": 1398,
      "ty": 1399,
      "inal": 1400,
      "ĠEx": 1401,
      "Ġpop": 1402,
      "ĠIf": 1403,
      "Ġplay": 1404,
      "'t": 1405,
      "âĢĻt": 1406,
      "ves": 1407,
      "iel": 1408,
      "elf": 1409,
      "ex": 1410,
      "ĠYou": 1411,
      "Ġ'": 1412,
      "Ġlook": 1413,
      "Ġsci": 1414,
      "any": 1415,
      "Ġcare": 1416,
      "cent": 1417,
      "Ġorgan": 1418,
      "Ġoften": 1419,
      "Ġconsid": 1420,
      ".,": 1421,
      "Ġ\\": 1422,
      "Ġgrou": 1423,
      "cing": 1424,
      "Ġserv": 1425,
      "Ġfood": 1426,
      "Ġret": 1427,
      "15": 1428,
      "raph": 1429,
      "ather": 1430,
      "itions": 1431,
      "What": 1432,
      "Ġbook": 1433,
      "Ġgood": 1434,
      "Ġpub": 1435,
      "ization": 1436,
      "Ġactiv": 1437,
      "itive": 1438,
      "Ġend": 1439,
      "pr": 1440,
      "ined": 1441,
      "ock": 1442,
      "Ġadv": 1443,
      "vironment": 1444,
      "Ġfocus": 1445,
      "ale": 1446,
      "Ġless": 1447,
      "Ġpoint": 1448,
      "Ġtest": 1449,
      "Ġallow": 1450,
      "Ġlearn": 1451,
      "ĠThese": 1452,
      "Ġchildren": 1453,
      "Ġmuch": 1454,
      "Ġcommon": 1455,
      "ining": 1456,
      "der": 1457,
      "ergy": 1458,
      "Ġpresent": 1459,
      "ix": 1460,
      "acter": 1461,
      "Ġtyp": 1462,
      "Ġdirect": 1463,
      "ability": 1464,
      "iness": 1465,
      "ience": 1466,
      "line": 1467,
      "aterial": 1468,
      "Ġdetail": 1469,
      "io": 1470,
      "Ġvis": 1471,
      "Ġaround": 1472,
      "ĠInd": 1473,
      "Ġsom": 1474,
      "||": 1475,
      "Ġconf": 1476,
      "čĊ": 1477,
      "over": 1478,
      "tle": 1479,
      "Ġhuman": 1480,
      "angu": 1481,
      "Ġsame": 1482,
      "Ġreal": 1483,
      "ross": 1484,
      "day": 1485,
      "Ġprot": 1486,
      "Ġredu": 1487,
      "ĠAr": 1488,
      "Ġsupport": 1489,
      "Ġbr": 1490,
      "Ġtake": 1491,
      "the": 1492,
      "imate": 1493,
      "Ġpot": 1494,
      "und": 1495,
      "Ġ[": 1496,
      "iddle": 1497,
      "Ġthough": 1498,
      "bers": 1499,
      "Ġmade": 1500,
      "lish": 1501,
      "Ġposs": 1502,
      "rol": 1503,
      "book": 1504,
      "Ġmethod": 1505,
      "hy": 1506,
      "Ġsmall": 1507,
      "iven": 1508,
      "Ġmem": 1509,
      "Ġwithout": 1510,
      "ave": 1511,
      "ier": 1512,
      "ars": 1513,
      "Ġsocial": 1514,
      "air": 1515,
      "iving": 1516,
      "Ġbel": 1517,
      "ify": 1518,
      "Ġincluding": 1519,
      "ĠAd": 1520,
      "Ġtreat": 1521,
      "Ġmight": 1522,
      "Ġconcept": 1523,
      "Ġdown": 1524,
      "Ġcreat": 1525,
      "Ġconst": 1526,
      "Ġprof": 1527,
      "Ġelect": 1528,
      "cul": 1529,
      "ĠSe": 1530,
      "Ġbeh": 1531,
      "-b": 1532,
      "Ġstate": 1533,
      "Ġeduc": 1534,
      "Ġx": 1535,
      "nect": 1536,
      "ral": 1537,
      "ateg": 1538,
      "oci": 1539,
      "ted": 1540,
      "Ġident": 1541,
      "Ġsignific": 1542,
      "Ġcontent": 1543,
      "Ġplan": 1544,
      "ources": 1545,
      "ĠDe": 1546,
      "Ġ.": 1547,
      "ĠWhat": 1548,
      "ention": 1549,
      "ince": 1550,
      "arr": 1551,
      "Ġcontin": 1552,
      "ffic": 1553,
      "Ġday": 1554,
      "tain": 1555,
      "11": 1556,
      "Ġessay": 1557,
      "Ġmet": 1558,
      "ories": 1559,
      "Ġbody": 1560,
      "Ġimpro": 1561,
      "ters": 1562,
      "ared": 1563,
      "els": 1564,
      "Ġlearning": 1565,
      "Ġop": 1566,
      "Ġris": 1567,
      "Ġworks": 1568,
      "Ġaccess": 1569,
      "Ġmaterial": 1570,
      "ills": 1571,
      "Ġcalled": 1572,
      "erest": 1573,
      "Ġeas": 1574,
      "up": 1575,
      "Ġcourse": 1576,
      "Ġlet": 1577,
      "ledge": 1578,
      "Ġcle": 1579,
      "omen": 1580,
      "ental": 1581,
      "Ġself": 1582,
      "Ġser": 1583,
      "put": 1584,
      "Ġvarious": 1585,
      "Ġagain": 1586,
      "Ġproduct": 1587,
      "ination": 1588,
      "Ġthink": 1589,
      "Ġmust": 1590,
      "Ġcell": 1591,
      "Ġlist": 1592,
      "Ġintrodu": 1593,
      "Ġinvol": 1594,
      "conom": 1595,
      "Ġprom": 1596,
      "ven": 1597,
      "str": 1598,
      "Ġfunction": 1599,
      "ired": 1600,
      "oss": 1601,
      "por": 1602,
      "Ġwriting": 1603,
      "Ġenvironment": 1604,
      "Ġele": 1605,
      "-s": 1606,
      "This": 1607,
      "Ġcal": 1608,
      "Ġest": 1609,
      "Ġphys": 1610,
      "Ġmean": 1611,
      "Ġpar": 1612,
      "view": 1613,
      "Ġthree": 1614,
      "Ġiss": 1615,
      "Ġwant": 1616,
      "Ġmult": 1617,
      "arge": 1618,
      "ense": 1619,
      "Ġunderstanding": 1620,
      "ĠEng": 1621,
      "ains": 1622,
      "Ġsym": 1623,
      "Ġocc": 1624,
      "Ġpur": 1625,
      "16": 1626,
      "ĠQ": 1627,
      "Ġbuild": 1628,
      "Ġdem": 1629,
      "Ġbo": 1630,
      "Ġnow": 1631,
      "ption": 1632,
      "land": 1633,
      "Ġknown": 1634,
      "ĠBy": 1635,
      "port": 1636,
      "ulation": 1637,
      "ull": 1638,
      "ished": 1639,
      "ior": 1640,
      "Ġsubject": 1641,
      "Ġdel": 1642,
      "ertain": 1643,
      "Ġrelated": 1644,
      "aging": 1645,
      "Ġdevelopment": 1646,
      "Ġmiddle": 1647,
      "Ġenergy": 1648,
      "Ġben": 1649,
      "Ġstory": 1650,
      "Ġinc": 1651,
      "less": 1652,
      "aper": 1653,
      "Ġve": 1654,
      "Ġbest": 1655,
      "ĠAnd": 1656,
      "Ġabove": 1657,
      "Ġlangu": 1658,
      "Ġaw": 1659,
      "Ġmus": 1660,
      "Ġtem": 1661,
      "ash": 1662,
      "lu": 1663,
      "ique": 1664,
      "Ġmark": 1665,
      "Ġbas": 1666,
      "hers": 1667,
      "Ġbus": 1668,
      "Ġdise": 1669,
      "ological": 1670,
      "Ġens": 1671,
      "Ġchall": 1672,
      "-d": 1673,
      "ration": 1674,
      "iod": 1675,
      "ner": 1676,
      "ĠTo": 1677,
      "ank": 1678,
      "rite": 1679,
      "Ġchang": 1680,
      "oring": 1681,
      "oms": 1682,
      "Ġprovide": 1683,
      "ĠDo": 1684,
      "Ġperform": 1685,
      "Ġhistory": 1686,
      "Ġmeas": 1687,
      "Ġhand": 1688,
      "Ġchange": 1689,
      "aj": 1690,
      "14": 1691,
      "How": 1692,
      "____": 1693,
      "Ġsit": 1694,
      "ah": 1695,
      "Ġet": 1696,
      "Ġproper": 1697,
      "Ġcap": 1698,
      "Ġcurrent": 1699,
      "âĢĵ": 1700,
      ".\"": 1701,
      "Ġknowledge": 1702,
      "ĠThere": 1703,
      "17": 1704,
      "Ġdid": 1705,
      "par": 1706,
      "ision": 1707,
      "202": 1708,
      "ication": 1709,
      "Ġfin": 1710,
      "Ġcreate": 1711,
      "ode": 1712,
      "Ġsignificant": 1713,
      "Ġel": 1714,
      "ĠNew": 1715,
      "ern": 1716,
      "ĠHowever": 1717,
      "cond": 1718,
      "Ġinterest": 1719,
      "ccess": 1720,
      "for": 1721,
      "ury": 1722,
      "co": 1723,
      "13": 1724,
      "agn": 1725,
      "Ġtre": 1726,
      "Ġopp": 1727,
      "Ġhy": 1728,
      "to": 1729,
      "``": 1730,
      "ik": 1731,
      "Ġbetter": 1732,
      "ĠWh": 1733,
      "ances": 1734,
      "oun": 1735,
      "ysis": 1736,
      "ead": 1737,
      "atic": 1738,
      "Ġfollowing": 1739,
      "work": 1740,
      "ÂłÂł": 1741,
      "ends": 1742,
      "Ġdr": 1743,
      "ĠSh": 1744,
      "Ġfeel": 1745,
      "iting": 1746,
      "Ġplace": 1747,
      "ograph": 1748,
      "ids": 1749,
      "Ġche": 1750,
      "iversity": 1751,
      "ield": 1752,
      "Ġhome": 1753,
      "Ġgover": 1754,
      "uro": 1755,
      "ium": 1756,
      "Ġcaus": 1757,
      "ogn": 1758,
      "Ġbased": 1759,
      "Ġsaf": 1760,
      "Ġpotential": 1761,
      "Ġyoung": 1762,
      "ĠRes": 1763,
      "Ġimpact": 1764,
      "âĢĶ": 1765,
      "Ġoper": 1766,
      "Ġsaid": 1767,
      "Ġter": 1768,
      "Ġlight": 1769,
      "Ġunit": 1770,
      "agement": 1771,
      "ĠIs": 1772,
      "ĠPl": 1773,
      "ote": 1774,
      "Ġi": 1775,
      "Ġanother": 1776,
      "tt": 1777,
      "rain": 1778,
      "alk": 1779,
      "Ġpass": 1780,
      "Ġcho": 1781,
      "ling": 1782,
      "ason": 1783,
      "Ġdesc": 1784,
      "Ġstruct": 1785,
      "Ġbre": 1786,
      "ouse": 1787,
      "Ġproject": 1788,
      "30": 1789,
      "-p": 1790,
      "ilar": 1791,
      "Ġstre": 1792,
      "Ġsl": 1793,
      "az": 1794,
      "Ġfac": 1795,
      "Ġstand": 1796,
      "Ġmeans": 1797,
      "Ġrepres": 1798,
      "Ġimm": 1799,
      "ording": 1800,
      "ients": 1801,
      "Ġindu": 1802,
      "yle": 1803,
      "Ġlarge": 1804,
      "St": 1805,
      "Ġexamples": 1806,
      "ator": 1807,
      "Ġspecific": 1808,
      "ĠBut": 1809,
      "Ġdon": 1810,
      "ways": 1811,
      "Ġsever": 1812,
      "Ġdue": 1813,
      "Ġcrit": 1814,
      "ec": 1815,
      "clus": 1816,
      "hor": 1817,
      "Ġmaking": 1818,
      "ored": 1819,
      "Ġprint": 1820,
      "Ġdev": 1821,
      "000": 1822,
      "atural": 1823,
      "ots": 1824,
      "Ġbelie": 1825,
      "Ġtype": 1826,
      "Ġgovern": 1827,
      "olution": 1828,
      "Ġbenef": 1829,
      "ource": 1830,
      "Ġbecome": 1831,
      "Ġkeep": 1832,
      "ression": 1833,
      "icle": 1834,
      "Ġcr": 1835,
      "ently": 1836,
      "Ġtextbook": 1837,
      "Ġhapp": 1838,
      "25": 1839,
      "Ġaddition": 1840,
      "ards": 1841,
      "pos": 1842,
      "Ġobject": 1843,
      "irc": 1844,
      "ries": 1845,
      "ats": 1846,
      "Ġmove": 1847,
      ".âĢĿ": 1848,
      "ĠCl": 1849,
      "Ġleg": 1850,
      "Ġamong": 1851,
      "Ġcontrol": 1852,
      "iver": 1853,
      "Ġtru": 1854,
      "ĠTe": 1855,
      "itle": 1856,
      "Ġpublic": 1857,
      "Ġarea": 1858,
      "Ġeconom": 1859,
      "Ġaffect": 1860,
      "arent": 1861,
      "...": 1862,
      "Ġfree": 1863,
      "Ġhim": 1864,
      "Ġdiscuss": 1865,
      "Ġothers": 1866,
      "Ġreport": 1867,
      "ames": 1868,
      "Ġstill": 1869,
      "Ġbusiness": 1870,
      "Ġvalue": 1871,
      "ug": 1872,
      "sw": 1873,
      "rior": 1874,
      "Ġnon": 1875,
      "Ġlaw": 1876,
      "here": 1877,
      "ences": 1878,
      "ĠWhen": 1879,
      "Ġparticular": 1880,
      "ified": 1881,
      "ived": 1882,
      "Ġkey": 1883,
      "Ġant": 1884,
      "ditions": 1885,
      "rop": 1886,
      "urther": 1887,
      "Ġtopic": 1888,
      "me": 1889,
      "ency": 1890,
      "ething": 1891,
      "âĢ¢": 1892,
      "Ġlanguage": 1893,
      "Ġrelations": 1894,
      "Ġgroup": 1895,
      "Ġseveral": 1896,
      "ember": 1897,
      "Ġessential": 1898,
      "Ġline": 1899,
      "Ġstep": 1900,
      "ape": 1901,
      "Ġinvest": 1902,
      "utions": 1903,
      "Ġopt": 1904,
      "rap": 1905,
      "Ġfew": 1906,
      "Ġtool": 1907,
      "Ġcolle": 1908,
      "Ġrole": 1909,
      "sy": 1910,
      "100": 1911,
      "ĠPh": 1912,
      "Ġwords": 1913,
      "Ġsoci": 1914,
      "Ġcharacter": 1915,
      ").Ċ": 1916,
      "Ġbeg": 1917,
      "Ġanim": 1918,
      "Ġthings": 1919,
      "Ġfamily": 1920,
      "Ġconnect": 1921,
      "-f": 1922,
      "Ġ|": 1923,
      "ĠSo": 1924,
      "Ġtoget": 1925,
      "outh": 1926,
      "Ġtogether": 1927,
      "Ġpain": 1928,
      "Ġlim": 1929,
      "Ġopen": 1930,
      "Ġorder": 1931,
      "Ġtoo": 1932,
      "oad": 1933,
      "Ġhere": 1934,
      "Ġapproach": 1935,
      "Ġnarr": 1936,
      "ĠWor": 1937,
      "ides": 1938,
      "Ġcomput": 1939,
      "Ġmov": 1940,
      "orn": 1941,
      "Ġcost": 1942,
      "ploy": 1943,
      "izing": 1944,
      "Ġsomething": 1945,
      "Ġwhy": 1946,
      "ively": 1947,
      "Ġ#": 1948,
      "Ġsystems": 1949,
      "Ġcomplex": 1950,
      "Ġdra": 1951,
      "app": 1952,
      "ortun": 1953,
      "Ġfre": 1954,
      "ĠIm": 1955,
      "uture": 1956,
      "Ġpaper": 1957,
      "Ġenc": 1958,
      "Ġansw": 1959,
      "199": 1960,
      "ole": 1961,
      "br": 1962,
      "ables": 1963,
      "Ġrest": 1964,
      "Ġes": 1965,
      "Ġproblem": 1966,
      "Ġsuccess": 1967,
      "eral": 1968,
      "Ġbehav": 1969,
      "Ġlow": 1970,
      "Ġchalleng": 1971,
      "Ġapplic": 1972,
      "Ġblood": 1973,
      "Ġperiod": 1974,
      "ĠSp": 1975,
      "Ġorig": 1976,
      "ĠAmerican": 1977,
      "Ġcertain": 1978,
      "Ġbi": 1979,
      "Ġcontrib": 1980,
      "Ġrisk": 1981,
      "Ġprogram": 1982,
      "Ġskills": 1983,
      "Ġmill": 1984,
      "Ġnext": 1985,
      "apter": 1986,
      "abor": 1987,
      "ilities": 1988,
      "Ġgr": 1989,
      "Ġz": 1990,
      "Ġprior": 1991,
      "Ġavail": 1992,
      "of": 1993,
      "ajor": 1994,
      "Ġexperience": 1995,
      "Ġagainst": 1996,
      "Ġassoci": 1997,
      "val": 1998,
      "Ġdeterm": 1999,
      "-l": 2000,
      "ray": 2001,
      "oint": 2002,
      "Ġfri": 2003,
      "50": 2004,
      "It": 2005,
      "man": 2006,
      "Ġdig": 2007,
      "|Ċ": 2008,
      "Ġpossible": 2009,
      "Ġtypes": 2010,
      "Ġair": 2011,
      "Ġname": 2012,
      "Ġcase": 2013,
      "Ġcause": 2014,
      "Ġconsider": 2015,
      "Ġgiven": 2016,
      "cur": 2017,
      "ĠĠĠĠĠĠĠĠĠĠĠ": 2018,
      "Ġvol": 2019,
      ")ĊĊ": 2020,
      "Ġwomen": 2021,
      "Ġpost": 2022,
      "ton": 2023,
      "Ġprofess": 2024,
      "Ġold": 2025,
      "As": 2026,
      "Ġspecial": 2027,
      "Ġintern": 2028,
      "Ġtechnology": 2029,
      "Ġplant": 2030,
      "Ġhig": 2031,
      "ivity": 2032,
      "ane": 2033,
      "Ġsecond": 2034,
      "Ġconcepts": 2035,
      "Ġcomb": 2036,
      "ĠEn": 2037,
      "Ġearly": 2038,
      "Ġrange": 2039,
      "Ġsum": 2040,
      "be": 2041,
      "Ġproblems": 2042,
      "Ġindividuals": 2043,
      "ery": 2044,
      "etic": 2045,
      "Ġpress": 2046,
      "Ġdirectly": 2047,
      "ĠâĢĺ": 2048,
      "Ġoccur": 2049,
      "Ġinflu": 2050,
      "ĠCol": 2051,
      "ĠCan": 2052,
      "Ġtimes": 2053,
      "Ġstrateg": 2054,
      "Ġquestions": 2055,
      "ending": 2056,
      "Ġavoid": 2057,
      "Ġexperien": 2058,
      "Ġalong": 2059,
      "ĠWith": 2060,
      "Ġprevent": 2061,
      "Ġfore": 2062,
      "Ġlast": 2063,
      "idence": 2064,
      "istic": 2065,
      "Ġacross": 2066,
      "Ġnatural": 2067,
      "Ġdisease": 2068,
      "Ġeducation": 2069,
      "Ġview": 2070,
      "verage": 2071,
      "wards": 2072,
      "Ġ,": 2073,
      "ights": 2074,
      "erc": 2075,
      "Ġinteg": 2076,
      "rist": 2077,
      "Ġrelationship": 2078,
      "Ġanalysis": 2079,
      "Here": 2080,
      "Ġways": 2081,
      "lished": 2082,
      "Ġfil": 2083,
      "asing": 2084,
      "Ġage": 2085,
      "amp": 2086,
      "Ġimprove": 2087,
      "ina": 2088,
      "ipp": 2089,
      "Ġstudies": 2090,
      "verse": 2091,
      "Ġrespons": 2092,
      "Ġideas": 2093,
      "Ġsince": 2094,
      "Ġflow": 2095,
      "ym": 2096,
      "Ġcome": 2097,
      "ĠZ": 2098,
      "Ġrepresent": 2099,
      "ope": 2100,
      "Ġmajor": 2101,
      "gen": 2102,
      "ians": 2103,
      "Ġfuture": 2104,
      "ended": 2105,
      "yn": 2106,
      "ĠOr": 2107,
      "âĢľ": 2108,
      "iction": 2109,
      "Ġshort": 2110,
      "Ġable": 2111,
      "Ġwar": 2112,
      "Ġmil": 2113,
      "ems": 2114,
      "Ġneeds": 2115,
      "Ġobs": 2116,
      "arc": 2117,
      "iple": 2118,
      "Ġtry": 2119,
      "aster": 2120,
      "Ġnet": 2121,
      "Ġnecess": 2122,
      "Ġpersonal": 2123,
      "Ġrele": 2124,
      "bs": 2125,
      "Ġtreatment": 2126,
      "Ġareas": 2127,
      "obal": 2128,
      "oh": 2129,
      "aring": 2130,
      "ek": 2131,
      "Ġreturn": 2132,
      "pecial": 2133,
      "sych": 2134,
      "ox": 2135,
      "ĠUnited": 2136,
      "atures": 2137,
      "Ġmot": 2138,
      "Ġavailable": 2139,
      "Ġtitle": 2140,
      "Ġalways": 2141,
      "ĠBe": 2142,
      "Ġdetailed": 2143,
      "Ġer": 2144,
      "tal": 2145,
      "Ġcommunity": 2146,
      "Ġsimilar": 2147,
      "Ġliter": 2148,
      "Ġprotect": 2149,
      "Ġunt": 2150,
      "chie": 2151,
      "Ġissues": 2152,
      "ission": 2153,
      "Ġrequire": 2154,
      "ĠComm": 2155,
      "Ġbro": 2156,
      "Ġlevels": 2157,
      "ones": 2158,
      "icult": 2159,
      "ĠUniversity": 2160,
      "Ġsay": 2161,
      "###": 2162,
      "ument": 2163,
      "Ġresults": 2164,
      "Ġterm": 2165,
      "Ġcy": 2166,
      "aces": 2167,
      "Ġphysical": 2168,
      "ext": 2169,
      "Ġinteract": 2170,
      "We": 2171,
      "Ġscient": 2172,
      "-m": 2173,
      "omm": 2174,
      "Ġconditions": 2175,
      "orts": 2176,
      "ON": 2177,
      "Ġstrong": 2178,
      "Ġamount": 2179,
      "orth": 2180,
      "pre": 2181,
      "Ġhard": 2182,
      "face": 2183,
      "Ġpolit": 2184,
      "Ġfour": 2185,
      "Ġkind": 2186,
      "):Ċ": 2187,
      "Ġfactors": 2188,
      "Ġunique": 2189,
      "24": 2190,
      "Ġtemper": 2191,
      "Ġill": 2192,
      "cle": 2193,
      "apt": 2194,
      "ths": 2195,
      "Ġrun": 2196,
      "Ġcountry": 2197,
      "Ġsitu": 2198,
      "Ġlocal": 2199,
      "Ġresources": 2200,
      "ĠOn": 2201,
      "urope": 2202,
      "Ġmodel": 2203,
      "Ġconsum": 2204,
      "Ġvir": 2205,
      "Ġsing": 2206,
      "ER": 2207,
      "Ġgrowth": 2208,
      "ators": 2209,
      "omet": 2210,
      "lement": 2211,
      "Ġhead": 2212,
      "ised": 2213,
      "osp": 2214,
      "Ġprim": 2215,
      "osed": 2216,
      "ample": 2217,
      "atory": 2218,
      "Ġthought": 2219,
      "Ġsw": 2220,
      "Ġtoday": 2221,
      "icro": 2222,
      ",âĢĿ": 2223,
      "use": 2224,
      "ibility": 2225,
      "Ġmaintain": 2226,
      "oura": 2227,
      "Ġonline": 2228,
      "Ġgovernment": 2229,
      "Ġspace": 2230,
      "ires": 2231,
      "Ġaddress": 2232,
      "ĠSci": 2233,
      "Ġrad": 2234,
      "Ġcirc": 2235,
      "Ġphr": 2236,
      "Write": 2237,
      "Ġactivities": 2238,
      "Ġnarrative": 2239,
      "reen": 2240,
      "Ġsimple": 2241,
      "Ġchanges": 2242,
      "Ġquestion": 2243,
      "Ġland": 2244,
      "Ġtradition": 2245,
      "aut": 2246,
      "Ġmind": 2247,
      "ggest": 2248,
      "Ġspecies": 2249,
      "Ġpast": 2250,
      "thing": 2251,
      "If": 2252,
      "Ġbegin": 2253,
      "not": 2254,
      "atch": 2255,
      "Ġrece": 2256,
      "Ġscience": 2257,
      "Ġneg": 2258,
      "Ġpractice": 2259,
      "//": 2260,
      "Ġmar": 2261,
      "Ġword": 2262,
      "Ġexplore": 2263,
      "ware": 2264,
      "duct": 2265,
      "Ġachie": 2266,
      "Ġcru": 2267,
      "Ġmeasure": 2268,
      "Ġstra": 2269,
      "Ġcontain": 2270,
      "ĠInt": 2271,
      "Ġaccount": 2272,
      "ird": 2273,
      "ĠLe": 2274,
      "-c": 2275,
      "ĠStates": 2276,
      "Ġdescrib": 2277,
      "Ġauthor": 2278,
      "ĠAf": 2279,
      "let": 2280,
      "Ġcells": 2281,
      "Ġnear": 2282,
      "Ġsens": 2283,
      "ney": 2284,
      "Ġgive": 2285,
      "aching": 2286,
      "ening": 2287,
      "though": 2288,
      "ĠStud": 2289,
      "ĠOne": 2290,
      "Ġexist": 2291,
      "oney": 2292,
      "ours": 2293,
      "iques": 2294,
      "Ġheart": 2295,
      "ĠEnglish": 2296,
      "ales": 2297,
      "Ġquality": 2298,
      "ately": 2299,
      "Ġexc": 2300,
      "Ġcalcul": 2301,
      "Ġteac": 2302,
      "Ġsuggest": 2303,
      "An": 2304,
      "ification": 2305,
      "Ġmakes": 2306,
      "Ġask": 2307,
      "Ġemploy": 2308,
      "Ġopportun": 2309,
      "fficient": 2310,
      "ĠAt": 2311,
      "Ġclear": 2312,
      "ush": 2313,
      "aves": 2314,
      "ruction": 2315,
      "TI": 2316,
      "une": 2317,
      "Ġpositive": 2318,
      "Ġteam": 2319,
      "ibr": 2320,
      "Ġjour": 2321,
      "Ġput": 2322,
      "Ġcorre": 2323,
      "Ġworking": 2324,
      "nces": 2325,
      "Ġmaterials": 2326,
      "Ġensure": 2327,
      "Ġwrite": 2328,
      "acy": 2329,
      "$$": 2330,
      "anced": 2331,
      "Ġinit": 2332,
      "Ġincrease": 2333,
      "ĠThat": 2334,
      "ann": 2335,
      "!Ċ": 2336,
      "Ġhelps": 2337,
      "Ġnumbers": 2338,
      "Ġmatter": 2339,
      "Ġâ": 2340,
      "Ġconcer": 2341,
      "ĠEurope": 2342,
      "Ġnorm": 2343,
      "Ġmarket": 2344,
      "omes": 2345,
      "ww": 2346,
      "Ġcomplete": 2347,
      "Ġhaving": 2348,
      "ĠBl": 2349,
      "rac": 2350,
      "Ġhistor": 2351,
      "Ġdifficult": 2352,
      "ĠAll": 2353,
      "ips": 2354,
      "aps": 2355,
      "Ġusually": 2356,
      "Ġver": 2357,
      "ising": 2358,
      "Ġmanagement": 2359,
      "Ġeffects": 2360,
      "Ġfield": 2361,
      "Ġhigher": 2362,
      "Ġey": 2363,
      "plic": 2364,
      "vious": 2365,
      "Ġsent": 2366,
      "Ġmen": 2367,
      "ĠSome": 2368,
      "Ġrecogn": 2369,
      "Ġlittle": 2370,
      "Ġplants": 2371,
      "ĠQu": 2372,
      "utes": 2373,
      "Ġestab": 2374,
      "Ġemot": 2375,
      "Ġarticle": 2376,
      "Ġemb": 2377,
      "af": 2378,
      "Ġprin": 2379,
      "hens": 2380,
      "min": 2381,
      "ĠInst": 2382,
      "selves": 2383,
      "Ġpolic": 2384,
      "Ġparent": 2385,
      "Ġsure": 2386,
      "Ġ`": 2387,
      "ctions": 2388,
      "-t": 2389,
      "Ġupon": 2390,
      "lying": 2391,
      "Ġpred": 2392,
      "oot": 2393,
      "Ġuntil": 2394,
      "Ġdays": 2395,
      "ustom": 2396,
      "erence": 2397,
      "ĠPr": 2398,
      "fact": 2399,
      "ensive": 2400,
      "ler": 2401,
      "ptoms": 2402,
      "pecially": 2403,
      "Ġassociated": 2404,
      "ĠMed": 2405,
      "ably": 2406,
      "Ġfull": 2407,
      "Ġappear": 2408,
      "Ġmethods": 2409,
      "}{": 2410,
      "----------------": 2411,
      "40": 2412,
      "Ġmodern": 2413,
      "To": 2414,
      "Ġarg": 2415,
      "ither": 2416,
      "Ġfurther": 2417,
      "Ġvalues": 2418,
      "Ch": 2419,
      "22": 2420,
      "by": 2421,
      "ĠUse": 2422,
      "ĠEar": 2423,
      "clusion": 2424,
      "sequ": 2425,
      "ung": 2426,
      "Ġside": 2427,
      "Ġnut": 2428,
      "Ġthroughout": 2429,
      "Ġworkshe": 2430,
      "right": 2431,
      "ounds": 2432,
      "Ġ:": 2433,
      "Ġlarg": 2434,
      "inary": 2435,
      "Ġwhether": 2436,
      ",\"": 2437,
      "emic": 2438,
      "!ĊĊ": 2439,
      "Ġcompre": 2440,
      "ĠChrist": 2441,
      "Ġpopular": 2442,
      "ĠâĢĶ": 2443,
      "asc": 2444,
      "Ġcollect": 2445,
      "Ġmention": 2446,
      "Ġchem": 2447,
      "ystem": 2448,
      "rams": 2449,
      "Ġsize": 2450,
      "Ġleft": 2451,
      "play": 2452,
      "Ġphrases": 2453,
      "elling": 2454,
      "ĠAfric": 2455,
      "aries": 2456,
      "page": 2457,
      "Ġcoll": 2458,
      "amm": 2459,
      "Ġaspect": 2460,
      "âĢĻre": 2461,
      "Ġbig": 2462,
      "Ġrespect": 2463,
      "ES": 2464,
      "ee": 2465,
      "mit": 2466,
      "There": 2467,
      "Ġtri": 2468,
      "Ġgoing": 2469,
      "Ġnature": 2470,
      "ges": 2471,
      "Ġproducts": 2472,
      "ĠX": 2473,
      "Ġterms": 2474,
      "ĠUS": 2475,
      "Ġaway": 2476,
      "Ġcountries": 2477,
      "ises": 2478,
      "Ġever": 2479,
      "ĠSc": 2480,
      "Ġdam": 2481,
      "Ġlay": 2482,
      "...Ċ": 2483,
      "Ġfar": 2484,
      "ĠÂ": 2485,
      "Ġsociety": 2486,
      "Ġrecent": 2487,
      "Ġprovides": 2488,
      "Ġgeneral": 2489,
      "Ġturn": 2490,
      "Ġexplain": 2491,
      "come": 2492,
      "Ġstat": 2493,
      "ĠMan": 2494,
      "Ġmeaning": 2495,
      "?ĊĊ": 2496,
      "Ġstructure": 2497,
      "Ġeff": 2498,
      "Ġcompon": 2499,
      "Ġeffective": 2500,
      "Ġcomes": 2501,
      "Ġengaging": 2502,
      "Ġexpect": 2503,
      "Ġproduction": 2504,
      "Ġfrequ": 2505,
      "ĠEm": 2506,
      "âĢ¦": 2507,
      "Ġfund": 2508,
      "Ġtowards": 2509,
      "atives": 2510,
      "Ġstyle": 2511,
      "Ġindic": 2512,
      "bol": 2513,
      "earch": 2514,
      "side": 2515,
      "Ġgroups": 2516,
      "://": 2517,
      "Ġglobal": 2518,
      "Ġfocusing": 2519,
      "Ġge": 2520,
      "Try": 2521,
      "nal": 2522,
      "Ġespecially": 2523,
      "istics": 2524,
      "==": 2525,
      "ival": 2526,
      "Ġmass": 2527,
      "Ġculture": 2528,
      ".S": 2529,
      "Ġloss": 2530,
      "Ġdom": 2531,
      "ask": 2532,
      "Ġservices": 2533,
      "Ġactivity": 2534,
      "Ġparticip": 2535,
      "fer": 2536,
      "23": 2537,
      "Ġrelig": 2538,
      "Ġlower": 2539,
      "Ġcentury": 2540,
      "ume": 2541,
      "Ġreading": 2542,
      "Ġregard": 2543,
      "ule": 2544,
      "Ġbal": 2545,
      "Ġwebpage": 2546,
      "Ġleast": 2547,
      "bon": 2548,
      "ĠAm": 2549,
      "Ġpatients": 2550,
      "Ġpopulation": 2551,
      "ĠCont": 2552,
      "Ġtechniques": 2553,
      "Ġdeg": 2554,
      "Ġanaly": 2555,
      "Ġnecessary": 2556,
      "Ġrate": 2557,
      "ĠTr": 2558,
      "chan": 2559,
      "ĠâĢ¦": 2560,
      "ĠApp": 2561,
      "IN": 2562,
      "ctory": 2563,
      "Ġmedical": 2564,
      "Ġcritical": 2565,
      "Ġstress": 2566,
      "):": 2567,
      "60": 2568,
      "Ġreduce": 2569,
      "epend": 2570,
      "Ġsoft": 2571,
      "ites": 2572,
      "Ġenh": 2573,
      "ancial": 2574,
      "Ġmusic": 2575,
      "Ġsomeone": 2576,
      "Ġmach": 2577,
      "ĠCent": 2578,
      "curity": 2579,
      "\",": 2580,
      "ison": 2581,
      "Ġsingle": 2582,
      "ches": 2583,
      "Ġphot": 2584,
      "Ġcontinu": 2585,
      "aken": 2586,
      "Ġang": 2587,
      "Ġut": 2588,
      "Ġsymptoms": 2589,
      "ring": 2590,
      "Ġchallenges": 2591,
      "Ġimages": 2592,
      ".com": 2593,
      "Ġrecord": 2594,
      "itud": 2595,
      "Ġbasic": 2596,
      "Ġweight": 2597,
      "ĠDis": 2598,
      "Ġengine": 2599,
      "Ġpercent": 2600,
      "Ġreason": 2601,
      "agine": 2602,
      "Ġlot": 2603,
      "Ġpressure": 2604,
      "ĠFr": 2605,
      "Ġintroductory": 2606,
      "rug": 2607,
      "Ġ*": 2608,
      "Ġelements": 2609,
      "oration": 2610,
      "Ġremain": 2611,
      "Ġabs": 2612,
      "Ġvers": 2613,
      "Ġenough": 2614,
      "cient": 2615,
      "Ġobserv": 2616,
      "nov": 2617,
      "Ġpsych": 2618,
      "Ġpath": 2619,
      "Ġdeep": 2620,
      "Ġevents": 2621,
      "ĠWorld": 2622,
      "Ġbehavior": 2623,
      "Ġexerc": 2624,
      "Ġprob": 2625,
      "Ġanswer": 2626,
      "Ġsurface": 2627,
      "Ġpay": 2628,
      "Ġcrucial": 2629,
      "Ġbelow": 2630,
      "Ġsense": 2631,
      "ont": 2632,
      "à¤": 2633,
      "Ġbrain": 2634,
      "Ġhealthy": 2635,
      "Ġallows": 2636,
      "ĠGen": 2637,
      "Ġcheck": 2638,
      "]Ċ": 2639,
      "Ġbenefits": 2640,
      "21": 2641,
      "overed": 2642,
      "yl": 2643,
      "eds": 2644,
      "Ġtools": 2645,
      "Ġexplan": 2646,
      "Ġwide": 2647,
      "Ġlove": 2648,
      "Ġcomprehens": 2649,
      "Ġpie": 2650,
      "roll": 2651,
      "Ġ==": 2652,
      "Ġeasy": 2653,
      "ength": 2654,
      "Ġsubst": 2655,
      "Ġquick": 2656,
      "ĠHealth": 2657,
      "ender": 2658,
      "ĠYour": 2659,
      "atter": 2660,
      "Ġlive": 2661,
      "Wh": 2662,
      "Ġlater": 2663,
      "edi": 2664,
      "Ġcases": 2665,
      "Ġground": 2666,
      "ĠAss": 2667,
      "\".": 2668,
      "Ġdeath": 2669,
      "osis": 2670,
      "Ġshare": 2671,
      "ĠSu": 2672,
      "Ġclose": 2673,
      "oman": 2674,
      "sc": 2675,
      ",Ċ": 2676,
      "ĠDes": 2677,
      "eter": 2678,
      "Ġbuilding": 2679,
      "Ġevent": 2680,
      "Ġcolor": 2681,
      "igure": 2682,
      "illed": 2683,
      "oph": 2684,
      "fully": 2685,
      "Ġcultural": 2686,
      "Ġaccording": 2687,
      "Ġcustom": 2688,
      "Ġreview": 2689,
      "For": 2690,
      "When": 2691,
      "bo": 2692,
      "Ġlikely": 2693,
      "Ġparts": 2694,
      "Ġsqu": 2695,
      "ĠGod": 2696,
      "Ġidentify": 2697,
      "Ġtotal": 2698,
      "Ġred": 2699,
      "istance": 2700,
      "ĠShe": 2701,
      "Ġability": 2702,
      "Ġdoc": 2703,
      "Al": 2704,
      "Ġhowever": 2705,
      "Ġsuper": 2706,
      "Ġsource": 2707,
      "Ġassess": 2708,
      "Ġoffer": 2709,
      "Do": 2710,
      "imal": 2711,
      "Ġur": 2712,
      "Ġliving": 2713,
      "ott": 2714,
      "Ġ{": 2715,
      "lex": 2716,
      "ĠPol": 2717,
      "aling": 2718,
      "ming": 2719,
      "urs": 2720,
      "Ġdraw": 2721,
      "stry": 2722,
      "iol": 2723,
      "Ġmoney": 2724,
      "ĠMe": 2725,
      "Ġtarg": 2726,
      "aim": 2727,
      "alu": 2728,
      "Ġlives": 2729,
      "erous": 2730,
      "Ġreally": 2731,
      "Ġdiet": 2732,
      "Ġdistrib": 2733,
      "orpor": 2734,
      "198": 2735,
      "Ġbreak": 2736,
      "ules": 2737,
      "nds": 2738,
      "fect": 2739,
      "ned": 2740,
      "lt": 2741,
      "ma": 2742,
      "Ġmeet": 2743,
      "Ġgain": 2744,
      "print": 2745,
      "Ġreact": 2746,
      "iation": 2747,
      "leep": 2748,
      "Ġcity": 2749,
      "Ex": 2750,
      "Ġstreng": 2751,
      "AR": 2752,
      "ivil": 2753,
      "Ġcompany": 2754,
      "ĠWhile": 2755,
      "Ġvide": 2756,
      "Ġtraditional": 2757,
      "ctor": 2758,
      "Ġcut": 2759,
      "Ġnever": 2760,
      "raft": 2761,
      "ography": 2762,
      "ze": 2763,
      "28": 2764,
      "frac": 2765,
      "Ġtail": 2766,
      "27": 2767,
      "Ġguid": 2768,
      "Ġexpress": 2769,
      "Ġflu": 2770,
      "Ġsust": 2771,
      "icial": 2772,
      "Ġperformance": 2773,
      "rict": 2774,
      "light": 2775,
      "ĠPre": 2776,
      "Ġhouse": 2777,
      "Ġresearc": 2778,
      "vant": 2779,
      "Ġcomputer": 2780,
      "Ġce": 2781,
      "ĠWar": 2782,
      "Ġcondition": 2783,
      "rad": 2784,
      "Ġfamil": 2785,
      "Ġstraight": 2786,
      "itation": 2787,
      "alf": 2788,
      "Ġmultiple": 2789,
      "Ġmental": 2790,
      "You": 2791,
      "Ġcommunication": 2792,
      "NA": 2793,
      "ump": 2794,
      "augh": 2795,
      "Ġcontext": 2796,
      "Ġpolitical": 2797,
      "Ġpoints": 2798,
      "Ġincreased": 2799,
      "Ġharm": 2800,
      "ae": 2801,
      "Ġeth": 2802,
      "ores": 2803,
      "Ġeconomic": 2804,
      "rapy": 2805,
      "ĠAb": 2806,
      "....": 2807,
      "Ġconsidered": 2808,
      "joy": 2809,
      "Ġincreasing": 2810,
      "'re": 2811,
      "ils": 2812,
      "Ġcreated": 2813,
      "yth": 2814,
      "ript": 2815,
      "Ġjob": 2816,
      "ĠNational": 2817,
      "Ġmembers": 2818,
      "ready": 2819,
      "Ġdiv": 2820,
      "pose": 2821,
      "Ġdefin": 2822,
      "Ġport": 2823,
      "Ġselect": 2824,
      "Ġenvironmental": 2825,
      "ĠBrit": 2826,
      "ulations": 2827,
      "Ġfriends": 2828,
      "Ġstates": 2829,
      "ilt": 2830,
      "Ġanimals": 2831,
      "Ġaim": 2832,
      "Ġexperiences": 2833,
      "Ġregular": 2834,
      "Ġbooks": 2835,
      "ĠCal": 2836,
      "Ġtemperature": 2837,
      "Ġrequired": 2838,
      "ID": 2839,
      "Ġbir": 2840,
      "Ġcompet": 2841,
      "Ġwind": 2842,
      "ĠÐ": 2843,
      "Ġsustain": 2844,
      "Ġlog": 2845,
      "Ġemerg": 2846,
      "Ġrev": 2847,
      "Ġste": 2848,
      "Ġmor": 2849,
      "clude": 2850,
      "aches": 2851,
      "Ġcollege": 2852,
      "Ġpractices": 2853,
      "Ġwritten": 2854,
      "Ġarr": 2855,
      "Ġidea": 2856,
      "Ġrecomm": 2857,
      "rast": 2858,
      "ĠMore": 2859,
      "Ġcancer": 2860,
      "-based": 2861,
      "II": 2862,
      "unt": 2863,
      "Ġrather": 2864,
      "most": 2865,
      "Ġtraining": 2866,
      "het": 2867,
      "Ġhol": 2868,
      "pir": 2869,
      "Ġcreating": 2870,
      "ĠGu": 2871,
      "Ġindustry": 2872,
      "icles": 2873,
      "Ġconsist": 2874,
      "Ġstudent": 2875,
      "ĠHist": 2876,
      "Ġneeded": 2877,
      "Ġ**": 2878,
      "Ġsn": 2879,
      "astic": 2880,
      "Ġtur": 2881,
      "Ġincludes": 2882,
      "Ġfinancial": 2883,
      "iet": 2884,
      "ĠGerm": 2885,
      "cies": 2886,
      "Ġfall": 2887,
      "isions": 2888,
      "pro": 2889,
      "Ġmicro": 2890,
      "(\"": 2891,
      "Ġsal": 2892,
      "Ġsat": 2893,
      "EN": 2894,
      "Ġarch": 2895,
      "abet": 2896,
      "place": 2897,
      "Ġwhole": 2898,
      "Ġonce": 2899,
      "Ġencoura": 2900,
      "Ġeither": 2901,
      "ĠIntern": 2902,
      "load": 2903,
      "ĠMay": 2904,
      "aily": 2905,
      "ties": 2906,
      "Ġalready": 2907,
      "new": 2908,
      "Ġbra": 2909,
      "ĠCO": 2910,
      "Ġtalk": 2911,
      "Ġaud": 2912,
      "ĠLet": 2913,
      "-w": 2914,
      "Ġdog": 2915,
      "Ġclimate": 2916,
      "ley": 2917,
      "26": 2918,
      "Ġdeveloped": 2919,
      "ĠAct": 2920,
      "Ġtaking": 2921,
      "Ġsafe": 2922,
      "Ġmedia": 2923,
      "Ġrights": 2924,
      "erve": 2925,
      "Ġprote": 2926,
      "Ġfru": 2927,
      "ror": 2928,
      "Ġmillion": 2929,
      "Ġtechnical": 2930,
      "acks": 2931,
      "Ġconduct": 2932,
      "Ġthemselves": 2933,
      "Ġfeatures": 2934,
      "Ġdisord": 2935,
      "Ġimplement": 2936,
      "Ġadult": 2937,
      "Ġseen": 2938,
      "iment": 2939,
      "ene": 2940,
      "Ġcop": 2941,
      "Ġnegative": 2942,
      "Ġyet": 2943,
      "Ġdone": 2944,
      "onse": 2945,
      "Ã©": 2946,
      "Ġfive": 2947,
      "avor": 2948,
      "Ġoverall": 2949,
      "Ġcommunities": 2950,
      "Ġtravel": 2951,
      "ply": 2952,
      "Ġcorrect": 2953,
      "imately": 2954,
      "nderstand": 2955,
      "Ġimportance": 2956,
      "Ġsomet": 2957,
      "reg": 2958,
      "Ġsources": 2959,
      "Ġskin": 2960,
      "ĠCar": 2961,
      "Ġaction": 2962,
      "Ġevidence": 2963,
      "Ġmechan": 2964,
      "Ġactually": 2965,
      "Ġdesigned": 2966,
      "ai": 2967,
      "Ġbecame": 2968,
      "AT": 2969,
      "onstr": 2970,
      "####": 2971,
      "Ġenjoy": 2972,
      "Ġclean": 2973,
      "ĠUs": 2974,
      "IC": 2975,
      "Ġevalu": 2976,
      "ĠJoh": 2977,
      "Ġlab": 2978,
      "Ġmath": 2979,
      "Ġhtt": 2980,
      "Ġtransform": 2981,
      "Ġshows": 2982,
      "ĠGe": 2983,
      "Ġstories": 2984,
      "Ġpage": 2985,
      "ĠOf": 2986,
      "-in": 2987,
      "yp": 2988,
      "ened": 2989,
      "Ġposition": 2990,
      "ĠAfter": 2991,
      "Ġreflect": 2992,
      "li": 2993,
      "Ġstrategies": 2994,
      "Ġtell": 2995,
      "ners": 2996,
      "ĠAv": 2997,
      "go": 2998,
      "Ġ<": 2999,
      "mon": 3000,
      "Ġmoving": 3001,
      "Ġheat": 3002,
      "Ġentire": 3003,
      "ĠTra": 3004,
      "lection": 3005,
      "Ġsometimes": 3006,
      "Ġattention": 3007,
      "AS": 3008,
      "Ġcode": 3009,
      ".\"ĊĊ": 3010,
      "ufact": 3011,
      "hemat": 3012,
      "ĠAmerica": 3013,
      "Ġgame": 3014,
      "Ġaccessible": 3015,
      "ublic": 3016,
      "Ġdifference": 3017,
      "Ġweek": 3018,
      "oon": 3019,
      "Ġtrue": 3020,
      "Ġsepar": 3021,
      "ged": 3022,
      "Ġsex": 3023,
      "Ġvalu": 3024,
      "Ġeveryone": 3025,
      "ĠNe": 3026,
      "duc": 3027,
      "Ġservice": 3028,
      "Ġforms": 3029,
      "acters": 3030,
      "hib": 3031,
      "Ġcat": 3032,
      "ground": 3033,
      ".âĢĿĊ": 3034,
      "Ġachieve": 3035,
      "OR": 3036,
      "Ġsoil": 3037,
      "ĠProv": 3038,
      "Ġgreen": 3039,
      "ĠâĢ¢": 3040,
      "IS": 3041,
      "aged": 3042,
      "Ġwhite": 3043,
      "Ġstandard": 3044,
      "Ġann": 3045,
      "Ġbar": 3046,
      "ĠEarth": 3047,
      "Ġinnov": 3048,
      "Ġfeed": 3049,
      "iency": 3050,
      "Ġpriv": 3051,
      ".g": 3052,
      "Ġmedic": 3053,
      "Ġyourself": 3054,
      "ronic": 3055,
      "Ġleading": 3056,
      "ĠMar": 3057,
      "aving": 3058,
      "Ġdigital": 3059,
      "Ġnetwork": 3060,
      "Ġcapt": 3061,
      "hern": 3062,
      "Ġextra": 3063,
      "pri": 3064,
      "imum": 3065,
      "29": 3066,
      "Ġquant": 3067,
      "Ġface": 3068,
      "Ġtheory": 3069,
      "Ġsolution": 3070,
      "________": 3071,
      "ried": 3072,
      "org": 3073,
      "izations": 3074,
      "Ġdrug": 3075,
      "Ġlif": 3076,
      "Ġtarget": 3077,
      "Ġexciting": 3078,
      "Ġinstead": 3079,
      "One": 3080,
      "Ġsays": 3081,
      "Ġadapt": 3082,
      "Ġbeaut": 3083,
      "Ġnational": 3084,
      "Ġdoesn": 3085,
      "Now": 3086,
      "Ġdemonstr": 3087,
      "mber": 3088,
      "uck": 3089,
      "Ġsymbol": 3090,
      "Ġoffers": 3091,
      "Ġetc": 3092,
      "Ġshap": 3093,
      "Ġwin": 3094,
      "Ġlink": 3095,
      "Ġuses": 3096,
      "ĠĊ": 3097,
      "ologies": 3098,
      "Ġvariety": 3099,
      "Ġseem": 3100,
      "ging": 3101,
      "Ġcomprehensive": 3102,
      "Ġwebs": 3103,
      "know": 3104,
      "Ġprevious": 3105,
      "Ġsafety": 3106,
      "hing": 3107,
      "Ġhours": 3108,
      "Ġblack": 3109,
      "Ġhab": 3110,
      "Ġfail": 3111,
      "Ġcannot": 3112,
      "Ġgraph": 3113,
      "Ġchemical": 3114,
      "ĠRep": 3115,
      "Ġelse": 3116,
      "ĠCons": 3117,
      "way": 3118,
      "Ġprimary": 3119,
      "ura": 3120,
      "ula": 3121,
      "ster": 3122,
      "Ġcauses": 3123,
      "Ġaltern": 3124,
      "hood": 3125,
      "Ġseries": 3126,
      "ĠIndia": 3127,
      "hol": 3128,
      "Ġcompan": 3129,
      "eration": 3130,
      "ĠPer": 3131,
      "Ġproduce": 3132,
      "amin": 3133,
      "Ġep": 3134,
      "Ġsite": 3135,
      "Ġcontinue": 3136,
      "Ġexplanations": 3137,
      "Ġlo": 3138,
      "amed": 3139,
      "Ġhistorical": 3140,
      "Ġsun": 3141,
      "Ġbring": 3142,
      "ĠNo": 3143,
      "Ġtaken": 3144,
      "pite": 3145,
      "-re": 3146,
      "acc": 3147,
      "Ġregion": 3148,
      "ls": 3149,
      "ese": 3150,
      "osing": 3151,
      "Ġgreater": 3152,
      "reme": 3153,
      "Ġgas": 3154,
      "ython": 3155,
      "Ġapplications": 3156,
      "Ġprocesses": 3157,
      "Ġmom": 3158,
      "Ġtone": 3159,
      "Ġequal": 3160,
      "lease": 3161,
      "ĠSouth": 3162,
      "ĠScience": 3163,
      "vere": 3164,
      "Ġfish": 3165,
      "aced": 3166,
      "Ġelectric": 3167,
      "Ġlooking": 3168,
      "Ġexact": 3169,
      "Ġfat": 3170,
      "ĠFe": 3171,
      "Ġmagn": 3172,
      "Ġresearchers": 3173,
      "roduction": 3174,
      "lation": 3175,
      "uted": 3176,
      "Ġprovided": 3177,
      "Ġdepth": 3178,
      "terns": 3179,
      "Ġhold": 3180,
      "Ġdeb": 3181,
      "Ġpict": 3182,
      "oking": 3183,
      "Ġchapter": 3184,
      "Ġfem": 3185,
      "Ġdest": 3186,
      "ider": 3187,
      "enge": 3188,
      "{\\": 3189,
      "Ġmess": 3190,
      "itution": 3191,
      "197": 3192,
      "Ġmax": 3193,
      "ĠResearch": 3194,
      "ream": 3195,
      "Ġforce": 3196,
      "Ġcharacters": 3197,
      "AN": 3198,
      "80": 3199,
      "vert": 3200,
      "AL": 3201,
      "itary": 3202,
      "ĠArt": 3203,
      "ĠReg": 3204,
      "erson": 3205,
      "Ġthinking": 3206,
      "Ġsleep": 3207,
      "Ġdiagn": 3208,
      "Ġnovel": 3209,
      "Ġresponse": 3210,
      "Ġworksheets": 3211,
      "ĠPe": 3212,
      "ĠCo": 3213,
      "Ġkids": 3214,
      "inating": 3215,
      "ccording": 3216,
      "Ġtakes": 3217,
      "itor": 3218,
      "yond": 3219,
      "ĠDr": 3220,
      "Ġconvers": 3221,
      "Ġaware": 3222,
      "ĠKe": 3223,
      "ront": 3224,
      "equ": 3225,
      "Ġparticularly": 3226,
      "Ġemp": 3227,
      "fort": 3228,
      "porary": 3229,
      "Ġ$$": 3230,
      "ĠLear": 3231,
      "Ġdaily": 3232,
      "oor": 3233,
      "rim": 3234,
      "Ġec": 3235,
      "Ġinstance": 3236,
      "Ġparents": 3237,
      "Ġinvolved": 3238,
      "Ġimage": 3239,
      "my": 3240,
      "uel": 3241,
      "Ġindepend": 3242,
      "ĠAust": 3243,
      "ĠSim": 3244,
      "ĠFrom": 3245,
      "Ġproviding": 3246,
      "Ġstop": 3247,
      ";Ċ": 3248,
      "care": 3249,
      "cell": 3250,
      "Ġstay": 3251,
      "Ġfunctions": 3252,
      "apan": 3253,
      "Ġshown": 3254,
      "Ġopportunities": 3255,
      "dom": 3256,
      "Ġdoing": 3257,
      "gar": 3258,
      "Ġlength": 3259,
      "Ġpromot": 3260,
      "Ġappropri": 3261,
      "Ġspread": 3262,
      "amples": 3263,
      "Ðµ": 3264,
      "Ġfram": 3265,
      "ero": 3266,
      "Ġ...": 3267,
      "Ġsteps": 3268,
      "\"\"": 3269,
      "Ġpatterns": 3270,
      "lor": 3271,
      "vey": 3272,
      "chol": 3273,
      "Ġsimply": 3274,
      "Ġmonths": 3275,
      "Ġbur": 3276,
      "Ġrefer": 3277,
      "izes": 3278,
      "ta": 3279,
      "Ġsound": 3280,
      "ĠComp": 3281,
      "Ġoil": 3282,
      "Ġones": 3283,
      "Ġap": 3284,
      "reci": 3285,
      "just": 3286,
      "(x": 3287,
      "Ġla": 3288,
      "Ġhyd": 3289,
      "ension": 3290,
      "udd": 3291,
      "Ġprograms": 3292,
      "ured": 3293,
      "Ġitself": 3294,
      "Ġsurround": 3295,
      "Ġsection": 3296,
      "Ġbehind": 3297,
      "ows": 3298,
      "',": 3299,
      "ounter": 3300,
      "Ġsoftware": 3301,
      "Ġmanufact": 3302,
      "Ġspir": 3303,
      "Ġwond": 3304,
      "irm": 3305,
      "resh": 3306,
      "inct": 3307,
      "Ġvisual": 3308,
      "Ġdiverse": 3309,
      "Ġinfluence": 3310,
      "orks": 3311,
      "Ġoriginal": 3312,
      "Ġdetermine": 3313,
      "Ġremember": 3314,
      "aly": 3315,
      "ban": 3316,
      "enn": 3317,
      "Ġprofessional": 3318,
      "empt": 3319,
      "arily": 3320,
      "ciples": 3321,
      "Ġinvolves": 3322,
      "Ġstarted": 3323,
      "Ġincorpor": 3324,
      "Ġreve": 3325,
      "oll": 3326,
      "Ġcarbon": 3327,
      "Ġaverage": 3328,
      "Ġinvestig": 3329,
      "Ġinside": 3330,
      "ĠÃ": 3331,
      "Ġliterature": 3332,
      "sh": 3333,
      "Ġcomponents": 3334,
      "Ġtypically": 3335,
      "room": 3336,
      "Ġshape": 3337,
      "Ġlands": 3338,
      "Ġnormal": 3339,
      "Ġrequires": 3340,
      "Ġprep": 3341,
      "ilos": 3342,
      "Ġseek": 3343,
      "Ġaspects": 3344,
      "ĠNorth": 3345,
      "Ġcontact": 3346,
      "Ġrelationships": 3347,
      "Ġprec": 3348,
      "Ġtable": 3349,
      "Ġmovement": 3350,
      "Ġutil": 3351,
      "Ġir": 3352,
      "ĠTechn": 3353,
      "Ġsecurity": 3354,
      "Ġinitial": 3355,
      "Ġprogress": 3356,
      "Ġcame": 3357,
      "Ġtailored": 3358,
      "isms": 3359,
      "nderstanding": 3360,
      "Ġcaused": 3361,
      "Ġeasily": 3362,
      "itude": 3363,
      "Ġthing": 3364,
      "Ġappl": 3365,
      "Ġled": 3366,
      "ĠRead": 3367,
      "Ġhalf": 3368,
      "wh": 3369,
      "Ġpublished": 3370,
      "ĠHere": 3371,
      "Ġperspect": 3372,
      "inally": 3373,
      "35": 3374,
      "Ġdecision": 3375,
      "Ġbroad": 3376,
      "Ġnews": 3377,
      "Ð¾": 3378,
      "Ġcompared": 3379,
      "cles": 3380,
      "Ġvideo": 3381,
      "Ġcover": 3382,
      "So": 3383,
      "Ġdeveloping": 3384,
      "ada": 3385,
      "itable": 3386,
      "mb": 3387,
      "Ġeverything": 3388,
      "Ġheav": 3389,
      "Ġissue": 3390,
      "Ġguide": 3391,
      "Ġsect": 3392,
      "45": 3393,
      "igen": 3394,
      "Ġgrowing": 3395,
      "ÂłÂłÂłÂł": 3396,
      "ĠAg": 3397,
      "Ġaccept": 3398,
      "ĠStart": 3399,
      "ĠGra": 3400,
      "Ġleaders": 3401,
      "rench": 3402,
      "Ġinput": 3403,
      "Ġox": 3404,
      "mar": 3405,
      "Ġsearch": 3406,
      "Ġvaluable": 3407,
      "Ġexploration": 3408,
      "Ġclaim": 3409,
      "term": 3410,
      "Ġsuff": 3411,
      "Im": 3412,
      "Ġaff": 3413,
      "ĠThrough": 3414,
      "ony": 3415,
      "ĠEns": 3416,
      "ĠInclude": 3417,
      ")čĊ": 3418,
      "rig": 3419,
      "urch": 3420,
      "oles": 3421,
      "196": 3422,
      "Ġviol": 3423,
      "ift": 3424,
      "Ġhumans": 3425,
      "ober": 3426,
      "ĠSchool": 3427,
      "ynam": 3428,
      "ding": 3429,
      "att": 3430,
      "ditionally": 3431,
      "Ġspeed": 3432,
      "rate": 3433,
      "Ġcook": 3434,
      "Ġsolutions": 3435,
      "Ġ>": 3436,
      "oved": 3437,
      "iter": 3438,
      "minist": 3439,
      "Ġball": 3440,
      "Ġdamage": 3441,
      "Ġchoose": 3442,
      "Ġpan": 3443,
      "Ġcross": 3444,
      "90": 3445,
      "Ġgrade": 3446,
      "ĠEduc": 3447,
      "Ġrelative": 3448,
      "abetes": 3449,
      "Ġteaching": 3450,
      "33": 3451,
      "Ġindustr": 3452,
      "forward": 3453,
      "Ġtax": 3454,
      "ger": 3455,
      "Ġfost": 3456,
      "Ġdevices": 3457,
      "Ġscre": 3458,
      "Ġbegan": 3459,
      "Ġjourney": 3460,
      "Ġpatient": 3461,
      "Ġadvant": 3462,
      "Ġthreat": 3463,
      "rs": 3464,
      "ĠPres": 3465,
      "Ġtrends": 3466,
      "more": 3467,
      "Ġinfect": 3468,
      "ocial": 3469,
      "Ġsurv": 3470,
      "anks": 3471,
      "ricult": 3472,
      "Ġalg": 3473,
      "ĠPar": 3474,
      "Ġconflic": 3475,
      "Ġlonger": 3476,
      "artment": 3477,
      "Ġgetting": 3478,
      "Ġcommit": 3479,
      "estern": 3480,
      "ched": 3481,
      "itute": 3482,
      "Ġpurpose": 3483,
      "Ġfarm": 3484,
      "ellig": 3485,
      "Ġinternational": 3486,
      "ĠPart": 3487,
      "('": 3488,
      "Ġobtain": 3489,
      "Ġbase": 3490,
      "-pro": 3491,
      "Ġconcent": 3492,
      "ĠDep": 3493,
      "Ġbelieve": 3494,
      "xi": 3495,
      "ancing": 3496,
      "rown": 3497,
      "Ġapplication": 3498,
      "```": 3499,
      "Ġslow": 3500,
      "Ġperfect": 3501,
      "ĠNot": 3502,
      "ĠWrite": 3503,
      "Ġancient": 3504,
      "Ġful": 3505,
      "Ġschools": 3506,
      "Ġappreci": 3507,
      "phas": 3508,
      "ĠMany": 3509,
      "Ġsituation": 3510,
      "iar": 3511,
      "ament": 3512,
      "'ll": 3513,
      "Ġfit": 3514,
      "Ġlines": 3515,
      "Ġago": 3516,
      "asons": 3517,
      "umb": 3518,
      "Con": 3519,
      "Ġhor": 3520,
      "Ġstru": 3521,
      "Ð°": 3522,
      "Ġcollabor": 3523,
      "Ġsequ": 3524,
      "ĠMod": 3525,
      "Ġdecre": 3526,
      "Ġactions": 3527,
      "By": 3528,
      "Ġtree": 3529,
      "aff": 3530,
      "Ġplat": 3531,
      "Ġpowerful": 3532,
      "Ġquickly": 3533,
      "na": 3534,
      "Ġrout": 3535,
      "Ġfoods": 3536,
      "Ġacad": 3537,
      "itect": 3538,
      "ying": 3539,
      "Ġcivil": 3540,
      "Ġder": 3541,
      "Ġpoll": 3542,
      "Ġveget": 3543,
      "Ġoutside": 3544,
      "Ġproced": 3545,
      "ĠĠĠĠĠĠĠĠĠĠĠĠĠĠĠ": 3546,
      "ades": 3547,
      "Ġeat": 3548,
      "Ġcompanies": 3549,
      "ĠEnsure": 3550,
      "Ġstraightforward": 3551,
      "Ġwild": 3552,
      "set": 3553,
      "iam": 3554,
      "raction": 3555,
      "Ġcard": 3556,
      "ĠState": 3557,
      "itch": 3558,
      "hel": 3559,
      "Ġtransport": 3560,
      "Ġdocument": 3561,
      "-to": 3562,
      "ister": 3563,
      "Ġbeyond": 3564,
      "Ġcontribute": 3565,
      "Ġbacter": 3566,
      "ĠJapan": 3567,
      "Ġcontains": 3568,
      "ervation": 3569,
      "ana": 3570,
      "ĠHis": 3571,
      "avig": 3572,
      "Ġextensive": 3573,
      "Ġwood": 3574,
      "Ġmix": 3575,
      "Ġtook": 3576,
      "Ġgard": 3577,
      "uth": 3578,
      "Ġcool": 3579,
      "âĢĻll": 3580,
      "ords": 3581,
      "TION": 3582,
      "70": 3583,
      "Ġtopics": 3584,
      "ously": 3585,
      "Ġconstant": 3586,
      "Ġbecomes": 3587,
      "istry": 3588,
      "Ġpredict": 3589,
      "ĠSystem": 3590,
      "ops": 3591,
      "Ġalmost": 3592,
      "Ġuser": 3593,
      "Ġessays": 3594,
      "Ġfire": 3595,
      "orith": 3596,
      "Ġroot": 3597,
      "lear": 3598,
      "ancy": 3599,
      "ĠAc": 3600,
      "Ġproperties": 3601,
      "where": 3602,
      "rated": 3603,
      "Ġdifferences": 3604,
      "Ġdiscover": 3605,
      "Ġadditional": 3606,
      "36": 3607,
      "Ġefficient": 3608,
      "Ġpolicy": 3609,
      "Ġteachers": 3610,
      "Ġdat": 3611,
      "ipment": 3612,
      "-st": 3613,
      "Ġinj": 3614,
      "Ġobjects": 3615,
      "Ġdecl": 3616,
      "Ġappropriate": 3617,
      "Ġearth": 3618,
      "ĠGo": 3619,
      "-h": 3620,
      "Ġscientific": 3621,
      "Ġgenerally": 3622,
      "Ġsil": 3623,
      "ĠChina": 3624,
      "Ġblock": 3625,
      "ino": 3626,
      "ĠJohn": 3627,
      "ription": 3628,
      "ĠProvide": 3629,
      "bra": 3630,
      "Ġmodels": 3631,
      "Ġcit": 3632,
      "ED": 3633,
      "ulate": 3634,
      "Ġexercise": 3635,
      "Ġwarm": 3636,
      "emporary": 3637,
      "Ġrich": 3638,
      "apers": 3639,
      "Ġpack": 3640,
      "ellow": 3641,
      "ĠAI": 3642,
      "Ġvisit": 3643,
      "Ġvirus": 3644,
      "orial": 3645,
      "Ġefforts": 3646,
      "ĠEss": 3647,
      "Ġsignificantly": 3648,
      "Ġwa": 3649,
      "head": 3650,
      "Ġassign": 3651,
      "Ġrules": 3652,
      "Ġwaste": 3653,
      "Ġdou": 3654,
      "Ġfa": 3655,
      "Ġlegal": 3656,
      "ĠAre": 3657,
      "ields": 3658,
      "Ġfriend": 3659,
      "ided": 3660,
      "Ġbelief": 3661,
      "Ġanimal": 3662,
      "ech": 3663,
      "Ġdecisions": 3664,
      "Ġextreme": 3665,
      "Ġbalance": 3666,
      "text": 3667,
      "Ġlack": 3668,
      "Ġcele": 3669,
      "Ġsix": 3670,
      "pid": 3671,
      "odies": 3672,
      "Ġfasc": 3673,
      "Is": 3674,
      "Ġjo": 3675,
      "Ġdiseases": 3676,
      "Ġlarger": 3677,
      "Ġautom": 3678,
      "Ġacid": 3679,
      "ĠAvoid": 3680,
      "Ġoptions": 3681,
      "Pro": 3682,
      "ĠOver": 3683,
      "Ġmachine": 3684,
      "vention": 3685,
      "}}": 3686,
      "ĠMin": 3687,
      "Ġitems": 3688,
      "ĠFirst": 3689,
      "ĠTrans": 3690,
      "bre": 3691,
      "Ġcapac": 3692,
      "Ġelement": 3693,
      "Ġbread": 3694,
      "Ġexploring": 3695,
      "asks": 3696,
      "like": 3697,
      "def": 3698,
      "comes": 3699,
      "rix": 3700,
      "uments": 3701,
      "Ġconsequ": 3702,
      "ĠBritish": 3703,
      "epth": 3704,
      "Ġinterpre": 3705,
      "Ġult": 3706,
      "194": 3707,
      "Ġcateg": 3708,
      "_{": 3709,
      "Ġbuilt": 3710,
      "amb": 3711,
      "col": 3712,
      "Ġdetect": 3713,
      "Ġclin": 3714,
      "Ġestablish": 3715,
      "oud": 3716,
      "Ġspeak": 3717,
      "ĠWorks": 3718,
      "But": 3719,
      "erences": 3720,
      "Step": 3721,
      "AC": 3722,
      "Ġfoot": 3723,
      "back": 3724,
      "Re": 3725,
      "uit": 3726,
      "Ġmole": 3727,
      "Ġfast": 3728,
      "inate": 3729,
      "Ġuseful": 3730,
      "Ġrat": 3731,
      "Ġsample": 3732,
      "ĠMy": 3733,
      "-life": 3734,
      "Ġlate": 3735,
      "oday": 3736,
      "ached": 3737,
      "Ġ)": 3738,
      "illing": 3739,
      "rical": 3740,
      "Ġprinciples": 3741,
      "Ġactive": 3742,
      "Ġresponsible": 3743,
      "Ġscientists": 3744,
      "ifically": 3745,
      "Ġemphas": 3746,
      "Ġdemand": 3747,
      "ensity": 3748,
      "tical": 3749,
      "Ġeye": 3750,
      "ĠKing": 3751,
      "ĠSol": 3752,
      "uries": 3753,
      "rought": 3754,
      "Ġusers": 3755,
      "Ġgames": 3756,
      "ran": 3757,
      "Ġfile": 3758,
      "Ġeffic": 3759,
      "Ġplatform": 3760,
      "Ġsupply": 3761,
      "Ġleaves": 3762,
      "ĠDevelop": 3763,
      "Ġminutes": 3764,
      "Ġmis": 3765,
      "-g": 3766,
      "ĠNow": 3767,
      "Ġund": 3768,
      "Ġincluded": 3769,
      "itual": 3770,
      "Ġhar": 3771,
      "wise": 3772,
      "Ġadded": 3773,
      "Ġwall": 3774,
      "Ġrob": 3775,
      "ĠOur": 3776,
      "Ġbab": 3777,
      "ĠHistory": 3778,
      "argon": 3779,
      "ius": 3780,
      "Ġnight": 3781,
      "Ġhealthcare": 3782,
      "Ġearl": 3783,
      "umber": 3784,
      "Ġprojects": 3785,
      "Ġcamp": 3786,
      "Ġbit": 3787,
      "Ġremains": 3788,
      "osition": 3789,
      "Ġcosts": 3790,
      "Ġthird": 3791,
      "Ġadop": 3792,
      "Ġbehavi": 3793,
      "ĠGl": 3794,
      "Ġcoverage": 3795,
      "iles": 3796,
      "Ġtherapy": 3797,
      "ĠEd": 3798,
      "(n": 3799,
      "Ġmeasures": 3800,
      "Ġattempt": 3801,
      "Ġwalk": 3802,
      "Ġfinal": 3803,
      "Ġgoal": 3804,
      "idge": 3805,
      "xiety": 3806,
      "ĠJust": 3807,
      "Ġbound": 3808,
      "abilities": 3809,
      "Ġhighly": 3810,
      "Ġsuccessful": 3811,
      "Ġproduced": 3812,
      "Ġsec": 3813,
      "iful": 3814,
      "Ġfactor": 3815,
      "ĠRem": 3816,
      "Ġpages": 3817,
      "Ġmulti": 3818,
      "Ġdry": 3819,
      ".org": 3820,
      "ica": 3821,
      "Ġjargon": 3822,
      "Ġregarding": 3823,
      "Ġing": 3824,
      "nection": 3825,
      "Ġbreat": 3826,
      "issions": 3827,
      "ĠTw": 3828,
      "-depth": 3829,
      "Ġequation": 3830,
      "Ġstrugg": 3831,
      "che": 3832,
      "Ġquite": 3833,
      "Ġhyp": 3834,
      "hold": 3835,
      "lated": 3836,
      "osure": 3837,
      "Ġshared": 3838,
      "Ġapproachable": 3839,
      "ĠYork": 3840,
      "Ġcred": 3841,
      "Ġvia": 3842,
      "Ġtrying": 3843,
      "Ġcentral": 3844,
      "Ġdistance": 3845,
      "Ġdynam": 3846,
      "left": 3847,
      "ĠChapter": 3848,
      "Ad": 3849,
      "Ġallowing": 3850,
      "ĠAustral": 3851,
      "ĠÎ": 3852,
      "Ġgoals": 3853,
      "Ġcapital": 3854,
      "inks": 3855,
      "-term": 3856,
      "Ġvit": 3857,
      "Ġagree": 3858,
      "Ġsolar": 3859,
      "Ġcreative": 3860,
      "uman": 3861,
      "Ġmathemat": 3862,
      "raw": 3863,
      "ĠEuropean": 3864,
      "ceed": 3865,
      "Ġdial": 3866,
      "^{": 3867,
      "Ġcommunic": 3868,
      "ibrary": 3869,
      "Ġfavor": 3870,
      "Ġsituations": 3871,
      "Ġeducational": 3872,
      "ha": 3873,
      "cape": 3874,
      "Ġnumerous": 3875,
      "riting": 3876,
      "Ġdetails": 3877,
      "estion": 3878,
      "Ġillust": 3879,
      "Ġdang": 3880,
      "elt": 3881,
      "ndom": 3882,
      "ĠBook": 3883,
      "Ġisn": 3884,
      "Ġfamilies": 3885,
      "Ġphilos": 3886,
      "-e": 3887,
      "Ġinstall": 3888,
      "Ġstructures": 3889,
      "()": 3890,
      "He": 3891,
      "Ġdistribution": 3892,
      "Ġgot": 3893,
      "elines": 3894,
      "Ġpromote": 3895,
      "Ġwebsite": 3896,
      "Ġdim": 3897,
      "Ġformat": 3898,
      "pper": 3899,
      "Ġdivid": 3900,
      "mat": 3901,
      "Ġprice": 3902,
      "Ġchoice": 3903,
      "Ġalgorith": 3904,
      "Ġhot": 3905,
      "Ġorganizations": 3906,
      "ingu": 3907,
      "Ġlimited": 3908,
      "Ġreligious": 3909,
      "],": 3910,
      "ĠSm": 3911,
      "omy": 3912,
      "gn": 3913,
      "Ġreach": 3914,
      "Ġbill": 3915,
      "lim": 3916,
      "-y": 3917,
      "RE": 3918,
      "Ġorganization": 3919,
      "Ġaccur": 3920,
      "Ġord": 3921,
      "Ġpriorit": 3922,
      "Ġmonth": 3923,
      "Ġprofession": 3924,
      "irection": 3925,
      "Ġdevice": 3926,
      "Ġeffectively": 3927,
      "Ġrates": 3928,
      "Ġemotional": 3929,
      "ios": 3930,
      "iring": 3931,
      "Ġconclusion": 3932,
      "ĠMon": 3933,
      "Ġestim": 3934,
      "Ġcolon": 3935,
      "Ġsett": 3936,
      "Ġequipment": 3937,
      "ĠCour": 3938,
      "mission": 3939,
      "Ġprotein": 3940,
      "odes": 3941,
      "Ġstage": 3942,
      "ĠFrench": 3943,
      "rm": 3944,
      "Ġvacc": 3945,
      "Ġhands": 3946,
      "Ġgives": 3947,
      "Ġstatement": 3948,
      "ests": 3949,
      "Ġtrack": 3950,
      "IT": 3951,
      "Ġfeet": 3952,
      "32": 3953,
      "Ġden": 3954,
      "ĠInter": 3955,
      "Ġcry": 3956,
      "Ġnamed": 3957,
      "ĠAdditionally": 3958,
      "Ġproperty": 3959,
      "zz": 3960,
      "Ġidentity": 3961,
      "ĠEach": 3962,
      "Why": 3963,
      "Ġestablished": 3964,
      "Ġmemory": 3965,
      "pan": 3966,
      "ĠJan": 3967,
      "Ġinfection": 3968,
      "Ġtiss": 3969,
      "Ġlimit": 3970,
      "ief": 3971,
      "Ġtrust": 3972,
      "ĠThen": 3973,
      "sis": 3974,
      "eed": 3975,
      "Ġthus": 3976,
      "Ġoutput": 3977,
      "Ġserious": 3978,
      "ĠAfrican": 3979,
      "ĠâĪ": 3980,
      "Ġpropos": 3981,
      "Ġdistinct": 3982,
      "Ġbad": 3983,
      "Ġhost": 3984,
      "ederal": 3985,
      "Ġenhance": 3986,
      "Ġdiabetes": 3987,
      "Ġreaders": 3988,
      "Ġdefined": 3989,
      "inated": 3990,
      "Ġveh": 3991,
      "Ġlesson": 3992,
      "Ġmother": 3993,
      "rong": 3994,
      "Ġsmo": 3995,
      "oes": 3996,
      "Ġsus": 3997,
      "ĠGree": 3998,
      "iot": 3999,
      "ĠAfrica": 4000,
      "Ġteach": 4001,
      "On": 4002,
      "ception": 4003,
      "ĠCommun": 4004,
      "Ġseason": 4005,
      "Ġsugar": 4006,
      "uge": 4007,
      "Ġgender": 4008,
      "Ġsquare": 4009,
      "Ġexactly": 4010,
      "bor": 4011,
      "Ġmag": 4012,
      "Ġofficial": 4013,
      "ĠAlthough": 4014,
      "Ġcollection": 4015,
      "Ġrefers": 4016,
      "Ġfib": 4017,
      "Ġqual": 4018,
      "Ġapply": 4019,
      "Ġconstruct": 4020,
      "overy": 4021,
      "cohol": 4022,
      "Ġfair": 4023,
      "ĠWill": 4024,
      "Ġplaces": 4025,
      "urg": 4026,
      "Ġprotection": 4027,
      "Ġrapid": 4028,
      "31": 4029,
      "Ġinsights": 4030,
      "Ġlaws": 4031,
      "ĠCount": 4032,
      "ĠOther": 4033,
      "vest": 4034,
      "ĠJew": 4035,
      "Ġresid": 4036,
      "75": 4037,
      "cret": 4038,
      "ĠRel": 4039,
      "oming": 4040,
      "LE": 4041,
      "inese": 4042,
      "Ġtend": 4043,
      "Ġnavig": 4044,
      "ĠConnect": 4045,
      "resp": 4046,
      "HE": 4047,
      "rag": 4048,
      "Ġsevere": 4049,
      "Ġpen": 4050,
      "Ġinstruct": 4051,
      "Ġpractical": 4052,
      "ĠMus": 4053,
      "Ġtrees": 4054,
      "Ġroom": 4055,
      "Ġarchitect": 4056,
      "Ġpoor": 4057,
      "Ġplanning": 4058,
      "Ġimmedi": 4059,
      "eks": 4060,
      "Ġtherefore": 4061,
      "Ġpiece": 4062,
      "Ġnote": 4063,
      "Ġeyes": 4064,
      "ĠEducation": 4065,
      "Ġtechnologies": 4066,
      "name": 4067,
      "ille": 4068,
      "oice": 4069,
      "Ġconstruction": 4070,
      "Ġthous": 4071,
      "ĠRuss": 4072,
      "Ġpow": 4073,
      "Ġlabor": 4074,
      "Ġvirt": 4075,
      "âĢĻve": 4076,
      "ĠChar": 4077,
      "efore": 4078,
      "Ġadults": 4079,
      "Ġreported": 4080,
      "Ġacademic": 4081,
      "Ġexpression": 4082,
      "ĠII": 4083,
      "ogue": 4084,
      "ecause": 4085,
      "Ġcompar": 4086,
      "Ġlocation": 4087,
      "rogen": 4088,
      "Section": 4089,
      "Ġmoment": 4090,
      "Ġscen": 4091,
      "Ġlocated": 4092,
      "Ġoutcomes": 4093,
      "ogen": 4094,
      "ĠIndian": 4095,
      "Ġdepend": 4096,
      "34": 4097,
      "Ġbeginning": 4098,
      "Ġcenter": 4099,
      "ares": 4100,
      "Ġchallenging": 4101,
      "Ġlargest": 4102,
      "works": 4103,
      "Ġforest": 4104,
      "Ġvital": 4105,
      "ilit": 4106,
      "ĠMost": 4107,
      "Ġmilitary": 4108,
      "cious": 4109,
      "Ġdegree": 4110,
      "Ġintellig": 4111,
      "ĠExpl": 4112,
      "Â°": 4113,
      "Ġapprox": 4114,
      "arian": 4115,
      "Ġteacher": 4116,
      "cean": 4117,
      "math": 4118,
      "ĠAug": 4119,
      "angle": 4120,
      "Ġlearned": 4121,
      "Ġcommonly": 4122,
      "Ġtrade": 4123,
      "plications": 4124,
      "Ġinvolve": 4125,
      "Ġhope": 4126,
      "Ġaccom": 4127,
      "Ġreasons": 4128,
      "Ġdivers": 4129,
      "Ġsmaller": 4130,
      "Let": 4131,
      "ĠChild": 4132,
      "lands": 4133,
      "dis": 4134,
      "rt": 4135,
      "Ġpurch": 4136,
      "Ġfigure": 4137,
      "Ð¸": 4138,
      "ĠInternational": 4139,
      "Ġjud": 4140,
      "oe": 4141,
      "Ġded": 4142,
      "Ġrelevant": 4143,
      "ĠDi": 4144,
      "Ġconcerns": 4145,
      "formation": 4146,
      "ĠClass": 4147,
      "fl": 4148,
      "-S": 4149,
      "alle": 4150,
      "}$": 4151,
      "Ġtesting": 4152,
      "}\\": 4153,
      "Ġgold": 4154,
      "Ġroad": 4155,
      "ternal": 4156,
      "uk": 4157,
      "Ġdark": 4158,
      "Ġdisplay": 4159,
      "Ġanxiety": 4160,
      "Ġchallenge": 4161,
      "Ġcharacteristics": 4162,
      "Ġcarry": 4163,
      "Ġparam": 4164,
      "ĠAnt": 4165,
      "Ġsoon": 4166,
      "sect": 4167,
      "ĠChristian": 4168,
      "ocks": 4169,
      "Ġrequirements": 4170,
      "Ġwhose": 4171,
      "Ġcou": 4172,
      "ĠHer": 4173,
      "Ġstri": 4174,
      "Ġcontroll": 4175,
      "iny": 4176,
      "eper": 4177,
      "www": 4178,
      "Ġhttps": 4179,
      "Ġensuring": 4180,
      "rees": 4181,
      "Ġnation": 4182,
      "Ġfeature": 4183,
      "cipl": 4184,
      "hesis": 4185,
      "cont": 4186,
      "Ġresistance": 4187,
      "Ġadjust": 4188,
      "Ġeating": 4189,
      "Ġbeautiful": 4190,
      "Ġsigns": 4191,
      "iable": 4192,
      "inding": 4193,
      "Ġsolve": 4194,
      "Ġfresh": 4195,
      "Ġserve": 4196,
      "ĠUnderstanding": 4197,
      "195": 4198,
      "Ġresource": 4199,
      "99": 4200,
      "ĠAut": 4201,
      "airs": 4202,
      "Ġacqu": 4203,
      "wide": 4204,
      "Ġinteractions": 4205,
      "df": 4206,
      "Ġcontemporary": 4207,
      "ĠWhy": 4208,
      "ube": 4209,
      "ĠSw": 4210,
      "-C": 4211,
      "Ġegg": 4212,
      "Ġbusinesses": 4213,
      "Ġdefinition": 4214,
      "edia": 4215,
      "Ġbox": 4216,
      "Ġassist": 4217,
      "Ġadminist": 4218,
      "change": 4219,
      "Ġrisks": 4220,
      "ching": 4221,
      "Ġstrength": 4222,
      "ĠMat": 4223,
      "Ġrock": 4224,
      "Ġprioritize": 4225,
      "bit": 4226,
      "Ġreducing": 4227,
      "Ġexpand": 4228,
      "Ġforces": 4229,
      "Ġast": 4230,
      "uary": 4231,
      "Ġrot": 4232,
      "unction": 4233,
      "Ġlat": 4234,
      "Ġdrink": 4235,
      "ĠJu": 4236,
      "Ġagricult": 4237,
      "Ġoperations": 4238,
      "ĠOct": 4239,
      "ued": 4240,
      "Ġfascinating": 4241,
      "cks": 4242,
      "hors": 4243,
      "Ġalternative": 4244,
      "Ġlessons": 4245,
      "igenous": 4246,
      "Ġtasks": 4247,
      "water": 4248,
      "Ġplays": 4249,
      "Ġfear": 4250,
      "Ġnuc": 4251,
      "ball": 4252,
      "Ġupd": 4253,
      "Ġmob": 4254,
      "Ġtests": 4255,
      "ĠTheir": 4256,
      "haps": 4257,
      "ĠChe": 4258,
      "Ġsetting": 4259,
      "ĠJour": 4260,
      "overn": 4261,
      "Ġsea": 4262,
      "At": 4263,
      "Ġsustainable": 4264,
      "uild": 4265,
      "Ġdate": 4266,
      "Ġanswers": 4267,
      "Ġvary": 4268,
      "urance": 4269,
      "ĠWell": 4270,
      "Ġgradu": 4271,
      "Ġcelebr": 4272,
      "ĠProg": 4273,
      "Ġexpert": 4274,
      "ira": 4275,
      "Ġconnection": 4276,
      "Ġinteresting": 4277,
      "Ġthr": 4278,
      "ĠGreat": 4279,
      "Ġasked": 4280,
      "78": 4281,
      "Ġbackground": 4282,
      "Ġenter": 4283,
      "ĠPhys": 4284,
      "Ġnutri": 4285,
      "ype": 4286,
      "Ġdirection": 4287,
      "usion": 4288,
      "list": 4289,
      "cil": 4290,
      "Ġexec": 4291,
      "aste": 4292,
      "encies": 4293,
      "Ġapplied": 4294,
      "Ġcore": 4295,
      "Ġconnections": 4296,
      "))": 4297,
      "Ġtou": 4298,
      "Ġaffected": 4299,
      "Ġappe": 4300,
      "olic": 4301,
      "que": 4302,
      "ĠDay": 4303,
      "Ġmentioning": 4304,
      "Ġtask": 4305,
      "ST": 4306,
      "Ġphen": 4307,
      "Ġdeal": 4308,
      "Ġreceive": 4309,
      "used": 4310,
      "(self": 4311,
      "'ve": 4312,
      "Ġcomfort": 4313,
      "anish": 4314,
      "ees": 4315,
      "Ġopportunity": 4316,
      "ĠSocial": 4317,
      ".e": 4318,
      "rew": 4319,
      "Ġvolume": 4320,
      "ognitive": 4321,
      "These": 4322,
      "Ġattack": 4323,
      "Ġbenefit": 4324,
      "ĠSpe": 4325,
      "Ġinstru": 4326,
      "ulated": 4327,
      "ifying": 4328,
      "ĠFurther": 4329,
      "Ġdescribed": 4330,
      "athy": 4331,
      "Ġbirth": 4332,
      "Ġnutrit": 4333,
      "Ġcontrast": 4334,
      "500": 4335,
      "Ġscale": 4336,
      "Ġimag": 4337,
      "AP": 4338,
      "Ġfight": 4339,
      "ĠAccording": 4340,
      "Ġrule": 4341,
      "Ġcam": 4342,
      "38": 4343,
      "ÑĤ": 4344,
      "itis": 4345,
      "Ġeconomy": 4346,
      "ĠDef": 4347,
      "undred": 4348,
      "Ġcitiz": 4349,
      "193": 4350,
      "Ġrandom": 4351,
      "Ġalthough": 4352,
      "IV": 4353,
      "ĠCur": 4354,
      "ogle": 4355,
      "Ġhabit": 4356,
      "Ġprivate": 4357,
      "Ġstarting": 4358,
      "Ġadvanced": 4359,
      "Ġinsp": 4360,
      "rief": 4361,
      "Ġdiscovered": 4362,
      "Ġrecommend": 4363,
      "med": 4364,
      "Ġweather": 4365,
      "48": 4366,
      "Ġintroduction": 4367,
      "Ġfix": 4368,
      "iveness": 4369,
      "eing": 4370,
      "Ġheld": 4371,
      "elcome": 4372,
      "**ĊĊ": 4373,
      "Ġweeks": 4374,
      "39": 4375,
      "Ġanything": 4376,
      "ocol": 4377,
      "Ġhon": 4378,
      "umn": 4379,
      "mosp": 4380,
      "aught": 4381,
      "estic": 4382,
      "Ġmanage": 4383,
      "Ġiniti": 4384,
      "known": 4385,
      "Ġoccurs": 4386,
      "Ġdoctor": 4387,
      "Ġtips": 4388,
      "Ġreduced": 4389,
      "Ġcapacity": 4390,
      "37": 4391,
      "orage": 4392,
      "Ġprocessing": 4393,
      "eters": 4394,
      "Ġfront": 4395,
      "Ġsolid": 4396,
      "Ġexpected": 4397,
      "Ġefficiency": 4398,
      "Ġ$\\": 4399,
      "ĠHigh": 4400,
      "Ġiron": 4401,
      "Ġbatter": 4402,
      "force": 4403,
      "ĠWorkshe": 4404,
      "atur": 4405,
      "ĠVal": 4406,
      "While": 4407,
      "Ġnames": 4408,
      "Ġprinc": 4409,
      "Ġmount": 4410,
      "Ġcold": 4411,
      "Ġprop": 4412,
      "Ġmiss": 4413,
      "ĠRed": 4414,
      "With": 4415,
      "Ġschol": 4416,
      "Ġadvent": 4417,
      "Ġswe": 4418,
      "ĠServ": 4419,
      "Ġbott": 4420,
      "Ġsold": 4421,
      "Ġgoes": 4422,
      "Ġneigh": 4423,
      "mary": 4424,
      "ĠBo": 4425,
      "alse": 4426,
      "ĠSub": 4427,
      "uff": 4428,
      "Ġ...Ċ": 4429,
      "Ġexcess": 4430,
      "Ġrespond": 4431,
      "ĠEl": 4432,
      "(s": 4433,
      "Ġadvance": 4434,
      "rome": 4435,
      "ĠGerman": 4436,
      "ĠBi": 4437,
      "ĠDuring": 4438,
      "Ġbul": 4439,
      "Ġprobably": 4440,
      "Ġstandards": 4441,
      "amental": 4442,
      "Ġeasier": 4443,
      "Ġbuy": 4444,
      "gy": 4445,
      "ĠBar": 4446,
      "Ġevol": 4447,
      "Ġconnected": 4448,
      "ĠĠĠĠĠĠĠĠĠĠĠĠĠĠĠĠ": 4449,
      "ructure": 4450,
      "ophy": 4451,
      "Ġload": 4452,
      "Ġfig": 4453,
      "ought": 4454,
      "ĠApr": 4455,
      "AM": 4456,
      "ĠChinese": 4457,
      "-year": 4458,
      "rick": 4459,
      "ĠMark": 4460,
      "ams": 4461,
      "Un": 4462,
      "Ġheight": 4463,
      "Ġforward": 4464,
      "Ġwon": 4465,
      "Ġfinding": 4466,
      "Com": 4467,
      "Ġsociet": 4468,
      "ĠFl": 4469,
      "Ġdepending": 4470,
      "rie": 4471,
      "bal": 4472,
      "Ġrise": 4473,
      "anging": 4474,
      "ĠTherefore": 4475,
      "imize": 4476,
      "ĠHel": 4477,
      "Ġsurrounding": 4478,
      "etry": 4479,
      "Ġtechnique": 4480,
      "Ġspecifically": 4481,
      "Ġattract": 4482,
      "Ġtransfer": 4483,
      "Ġletter": 4484,
      "Ġapproaches": 4485,
      "key": 4486,
      "Ġmaster": 4487,
      "EC": 4488,
      "191": 4489,
      "attle": 4490,
      "-prov": 4491,
      "Ġfuel": 4492,
      "Ġbasis": 4493,
      "Ġlayer": 4494,
      "ĠOnce": 4495,
      "Ġmetal": 4496,
      "Ġengage": 4497,
      "ĠHar": 4498,
      "====": 4499,
      "Ġassum": 4500,
      "âĪ": 4501,
      "Ġworth": 4502,
      "Ġlost": 4503,
      "Int": 4504,
      "Ġearlier": 4505,
      "zing": 4506,
      "Ġpolicies": 4507,
      "Ġliqu": 4508,
      "Ġmaintaining": 4509,
      "44": 4510,
      "Ġdiag": 4511,
      "ii": 4512,
      "ses": 4513,
      "Ġdeeper": 4514,
      "ĠProf": 4515,
      "ĠCanada": 4516,
      "And": 4517,
      "ĠWork": 4518,
      "alysis": 4519,
      "edom": 4520,
      "ĠLaw": 4521,
      "Ġteeth": 4522,
      "Ġhappens": 4523,
      "Ġdisorder": 4524,
      "Ġregions": 4525,
      "ager": 4526,
      "Ġpresence": 4527,
      "Ġversion": 4528,
      "Ġcultures": 4529,
      "ĠTest": 4530,
      "ocr": 4531,
      "inc": 4532,
      "rupt": 4533,
      "Ġ--": 4534,
      "Ġborn": 4535,
      "iers": 4536,
      "Sh": 4537,
      "-provoking": 4538,
      "Ġconsequences": 4539,
      "Ġexisting": 4540,
      "Ġplanet": 4541,
      "Ġformula": 4542,
      "Ġhelping": 4543,
      "Ġblue": 4544,
      "anc": 4545,
      "wer": 4546,
      "Ġbrought": 4547,
      "ums": 4548,
      "Ġprepar": 4549,
      "Ġanti": 4550,
      "Ġbacteria": 4551,
      "Ġhair": 4552,
      "Ġfollowed": 4553,
      "hest": 4554,
      "Ġthoughts": 4555,
      "Ġgir": 4556,
      "Ġten": 4557,
      "Ġstore": 4558,
      "Ġunits": 4559,
      "Ġbreadth": 4560,
      "Ġpregn": 4561,
      "Ġrepl": 4562,
      "ĠBlack": 4563,
      "Ġrepresents": 4564,
      "bl": 4565,
      "Ġplans": 4566,
      "Ġstatus": 4567,
      "Ġalcohol": 4568,
      "ĠMath": 4569,
      "Ġvalid": 4570,
      "Ġmid": 4571,
      "192": 4572,
      "Ġmut": 4573,
      "Ġpapers": 4574,
      "iding": 4575,
      "Ġillness": 4576,
      "onic": 4577,
      "ĠData": 4578,
      "Ġcontract": 4579,
      "board": 4580,
      "Ġcommer": 4581,
      "lev": 4582,
      "Ġfamous": 4583,
      "Ġpick": 4584,
      "Ġwatch": 4585,
      "Ġ.Ċ": 4586,
      "Ġolder": 4587,
      "agraph": 4588,
      "Ġauthors": 4589,
      "()Ċ": 4590,
      "ĠHol": 4591,
      "ros": 4592,
      "isc": 4593,
      "lam": 4594,
      "ĠSince": 4595,
      "CO": 4596,
      "Ġexcell": 4597,
      "Ġexposure": 4598,
      "rab": 4599,
      "Ġworkers": 4600,
      "ibly": 4601,
      "icip": 4602,
      "Ġexperiment": 4603,
      "Ġboard": 4604,
      "Ġpicture": 4605,
      "Ġfeelings": 4606,
      "Ġreceived": 4607,
      "Ġunc": 4608,
      "Ġsites": 4609,
      "Ġfields": 4610,
      "Ġresulting": 4611,
      "Ġinterpret": 4612,
      "iforn": 4613,
      "ste": 4614,
      "esus": 4615,
      "Ġconsumption": 4616,
      "Ġweak": 4617,
      "ican": 4618,
      "Ġvict": 4619,
      "Ġpet": 4620,
      "cons": 4621,
      "Ġking": 4622,
      "Ġinfluen": 4623,
      "pected": 4624,
      "Ġcompletely": 4625,
      "Ġtim": 4626,
      "Ġhundred": 4627,
      "Ġfully": 4628,
      "RO": 4629,
      "Ġhom": 4630,
      "rices": 4631,
      "Ġvariables": 4632,
      "Ġspeech": 4633,
      "ĠEven": 4634,
      "ĠUsing": 4635,
      "Ġwrong": 4636,
      "onds": 4637,
      "Ġsexual": 4638,
      "ĠWest": 4639,
      "Ġstrategy": 4640,
      "Ġreality": 4641,
      "Ġzero": 4642,
      "ĠPlan": 4643,
      "Ġsignificance": 4644,
      "Ġtrig": 4645,
      "Ġformed": 4646,
      "Ġdownload": 4647,
      "Ġprofessionals": 4648,
      "55": 4649,
      "order": 4650,
      "Ġfather": 4651,
      "Ġunf": 4652,
      "ĠToday": 4653,
      "Ġlanguages": 4654,
      "Ġconflict": 4655,
      "Ġawareness": 4656,
      "Ġchanging": 4657,
      "ĠPeople": 4658,
      "ĠInstitute": 4659,
      "aid": 4660,
      "Ġargument": 4661,
      "Ġhosp": 4662,
      "Ġtour": 4663,
      "Ġemotions": 4664,
      "Ġmotiv": 4665,
      "Ġdead": 4666,
      "Ġseems": 4667,
      "VID": 4668,
      "urt": 4669,
      "Ġfilm": 4670,
      "_t": 4671,
      "Ġice": 4672,
      "ara": 4673,
      "Ġeffort": 4674,
      "ĠSupp": 4675,
      "ĠRef": 4676,
      "Ġgarden": 4677,
      "ĠLat": 4678,
      "Ġincreases": 4679,
      "oses": 4680,
      "Ġfindings": 4681,
      "Ġwent": 4682,
      "Ġurban": 4683,
      "Ġmonit": 4684,
      "Ġdive": 4685,
      "Ġrare": 4686,
      "Ġsharing": 4687,
      "Ġsave": 4688,
      "onal": 4689,
      "Ġinterests": 4690,
      "Ġtut": 4691,
      "Can": 4692,
      "Ġtrial": 4693,
      "Ġatmosp": 4694,
      "Ġopin": 4695,
      "AD": 4696,
      "ptember": 4697,
      "ĠPract": 4698,
      "Ġcm": 4699,
      ".)": 4700,
      "ctors": 4701,
      "Ġengineering": 4702,
      "Ġbodies": 4703,
      "Ġreference": 4704,
      "aled": 4705,
      "ĠIts": 4706,
      "going": 4707,
      "Ġpeace": 4708,
      "Ð½": 4709,
      "rote": 4710,
      "ags": 4711,
      "Ġready": 4712,
      "Ġdisorders": 4713,
      "Ġstim": 4714,
      "Ġspect": 4715,
      "ificial": 4716,
      "Ġcoord": 4717,
      "Ġsaw": 4718,
      "Ġgenetic": 4719,
      "Ġevolution": 4720,
      "hips": 4721,
      "osystem": 4722,
      "ygen": 4723,
      "Ġtoward": 4724,
      "hab": 4725,
      "Ġabsor": 4726,
      "ifornia": 4727,
      "ĠMarch": 4728,
      "Ġplot": 4729,
      "Ġplaying": 4730,
      "Ġmal": 4731,
      ".s": 4732,
      "erate": 4733,
      "Ġleave": 4734,
      "Ġrepe": 4735,
      "Ñģ": 4736,
      "Ġrow": 4737,
      "Ġexperim": 4738,
      "Ġcraft": 4739,
      "crete": 4740,
      "ĠCenter": 4741,
      "Ġbecoming": 4742,
      "Ġfeeling": 4743,
      "Ġdiss": 4744,
      "Ġjoint": 4745,
      "ĠAlso": 4746,
      "Ġincome": 4747,
      "Ġcorresp": 4748,
      "Ġfrequently": 4749,
      "ĠJournal": 4750,
      "cast": 4751,
      "off": 4752,
      "CE": 4753,
      "can": 4754,
      "Ġhappen": 4755,
      "Ġvariable": 4756,
      "Ġemail": 4757,
      "Ġgiving": 4758,
      "Ġmember": 4759,
      "Ġjournal": 4760,
      "Ġimmune": 4761,
      "ĠConf": 4762,
      "Ġdiversity": 4763,
      "Ġrain": 4764,
      "ded": 4765,
      "Ġdescribe": 4766,
      "Ġobserved": 4767,
      "aur": 4768,
      "Ġdidn": 4769,
      "ashing": 4770,
      "ping": 4771,
      "ollow": 4772,
      "Ġpieces": 4773,
      "ightly": 4774,
      "Ġfemale": 4775,
      "Ġpref": 4776,
      "do": 4777,
      "Ġcolors": 4778,
      "Ġmo": 4779,
      "Ġconver": 4780,
      "Ġoption": 4781,
      "Ġprefer": 4782,
      "Ġcycle": 4783,
      "mitted": 4784,
      "US": 4785,
      "Ġmap": 4786,
      "ĠSk": 4787,
      "cular": 4788,
      "ĠEngland": 4789,
      "ĠConst": 4790,
      "Ġclinical": 4791,
      "65": 4792,
      "ĠPat": 4793,
      "Ġsatis": 4794,
      "Ġframew": 4795,
      "Ġcand": 4796,
      "Ġcontinued": 4797,
      "Ġthemes": 4798,
      ".\"Ċ": 4799,
      "iance": 4800,
      "itutions": 4801,
      "lin": 4802,
      "Ġexhib": 4803,
      "ĠLearning": 4804,
      "Ġalone": 4805,
      "Ġpattern": 4806,
      "Ġwoman": 4807,
      "Ġguidelines": 4808,
      "ressive": 4809,
      "Ġexperienced": 4810,
      "TS": 4811,
      "point": 4812,
      "ĠForm": 4813,
      "ÑĢ": 4814,
      "ico": 4815,
      "Ġbaby": 4816,
      "95": 4817,
      "comp": 4818,
      "Ġkid": 4819,
      "part": 4820,
      "ama": 4821,
      "outhern": 4822,
      "dent": 4823,
      "Ġimproved": 4824,
      "ĠRet": 4825,
      "ĠWater": 4826,
      "Ġflex": 4827,
      "ĠEssay": 4828,
      "Ġfruit": 4829,
      "Ġindependent": 4830,
      "Ġcounter": 4831,
      "Ġsummer": 4832,
      "anguage": 4833,
      "Ġequations": 4834,
      "Ġinternal": 4835,
      "Ġhous": 4836,
      "Ġglass": 4837,
      "Ġrevolution": 4838,
      "Ġbran": 4839,
      "\"Ċ": 4840,
      "ĠStudents": 4841,
      "antic": 4842,
      "Ġpresented": 4843,
      "Ġingred": 4844,
      "Ġsentence": 4845,
      "Ġkg": 4846,
      "Ġallowed": 4847,
      "ĉĉ": 4848,
      "Ġexcept": 4849,
      "ibilities": 4850,
      "uration": 4851,
      "Ġsynt": 4852,
      "Ġindustrial": 4853,
      "hetic": 4854,
      "ĠFind": 4855,
      "ĠCor": 4856,
      "Ġidentified": 4857,
      "ĠBra": 4858,
      "Ġstorage": 4859,
      "ĠRev": 4860,
      "omb": 4861,
      "Ġheard": 4862,
      "Ġfacilit": 4863,
      "ĠAugust": 4864,
      "Ġpossess": 4865,
      "Ġbelong": 4866,
      "Ġcurrently": 4867,
      "enty": 4868,
      "ixt": 4869,
      "Ġinfl": 4870,
      "Ġbank": 4871,
      "Ġcities": 4872,
      "ĠJune": 4873,
      "Ġpoly": 4874,
      "unch": 4875,
      "Ġcareer": 4876,
      ".p": 4877,
      "opy": 4878,
      "Ġassessment": 4879,
      "ĠNet": 4880,
      "Ġrunning": 4881,
      "/s": 4882,
      "inn": 4883,
      "Ġtown": 4884,
      "ypes": 4885,
      "ĠDevelopment": 4886,
      "Ġmuscle": 4887,
      "ĠAN": 4888,
      "ĠAssoci": 4889,
      "Ġactual": 4890,
      "Ġpartners": 4891,
      "ĠAmericans": 4892,
      "Ġkil": 4893,
      "Ġremove": 4894,
      "cember": 4895,
      "Ġanyone": 4896,
      "cel": 4897,
      "Ġwonder": 4898,
      "orthern": 4899,
      "rows": 4900,
      "Ġdiscussion": 4901,
      "rue": 4902,
      "Ġagg": 4903,
      "Ġfilled": 4904,
      "01": 4905,
      "ĠJesus": 4906,
      "Ġsurg": 4907,
      "Ġfrequency": 4908,
      "Ġfundamental": 4909,
      "Res": 4910,
      "ĠAng": 4911,
      "ovember": 4912,
      "However": 4913,
      "Ġforeign": 4914,
      "Ġmedicine": 4915,
      "PS": 4916,
      "))Ċ": 4917,
      "ulum": 4918,
      "ographic": 4919,
      "rans": 4920,
      "vironments": 4921,
      "Ġwidely": 4922,
      "osen": 4923,
      "ĠFeb": 4924,
      "otes": 4925,
      "uses": 4926,
      "Ġshall": 4927,
      "Ġclassroom": 4928,
      "Ġcausing": 4929,
      "Ġarticles": 4930,
      "Ġcircum": 4931,
      "EM": 4932,
      "crib": 4933,
      "ĠOut": 4934,
      "ĠThus": 4935,
      "ĠRoman": 4936,
      "ĠGeneral": 4937,
      "Ġvoc": 4938,
      "Ġ%": 4939,
      "].": 4940,
      "Ġwanted": 4941,
      "Ph": 4942,
      "Ġinspir": 4943,
      "sp": 4944,
      "Ġclick": 4945,
      "Ġadding": 4946,
      "Ġcoming": 4947,
      "Ġeveryday": 4948,
      "Ġax": 4949,
      "Ġinternet": 4950,
      "Ġshowed": 4951,
      "Ġimagine": 4952,
      "ET": 4953,
      "aul": 4954,
      "Ġmig": 4955,
      "Ġdecided": 4956,
      "Ġchanged": 4957,
      "ret": 4958,
      "ĠIS": 4959,
      "Ġchance": 4960,
      "Ġcitizens": 4961,
      "05": 4962,
      "Ġcir": 4963,
      "ĠPress": 4964,
      "Ġdepression": 4965,
      "Ġexperts": 4966,
      "Ġnotes": 4967,
      "300": 4968,
      "Ġfert": 4969,
      "ä¸": 4970,
      "Ġcommand": 4971,
      "ĠDepartment": 4972,
      "otal": 4973,
      "Ġstudying": 4974,
      "ĠCity": 4975,
      "Ġworksheet": 4976,
      "Ġaccurate": 4977,
      "Ġbeliefs": 4978,
      "iling": 4979,
      "ĠCult": 4980,
      "roup": 4981,
      "ĠEqu": 4982,
      "Ġexamine": 4983,
      "Ġreligion": 4984,
      "ĠIntroduction": 4985,
      "Ġnothing": 4986,
      "Ġintelligence": 4987,
      "Ġcovered": 4988,
      "ĠApril": 4989,
      "Ġsort": 4990,
      "Ġgets": 4991,
      "Ġsounds": 4992,
      "ĠCalifornia": 4993,
      "Ġindex": 4994,
      "**:": 4995,
      "Ġpu": 4996,
      "eria": 4997,
      "Ġideal": 4998,
      "Ġcombination": 4999,
      "Ġencourage": 5000,
      "Ġworldwide": 5001,
      "190": 5002,
      "Ġoccup": 5003,
      "ĠManagement": 5004,
      "Ġresil": 5005,
      "iest": 5006,
      "Ġexternal": 5007,
      "Ġclos": 5008,
      "Ġpromoting": 5009,
      "Ġcommercial": 5010,
      "Ġsides": 5011,
      "Ġleads": 5012,
      "Ġfacts": 5013,
      "ensions": 5014,
      "ĠFurthermore": 5015,
      "\"ĊĊ": 5016,
      "Ġbirds": 5017,
      "Ġmentioned": 5018,
      "ĠProt": 5019,
      "ĠLife": 5020,
      "Ġmaximum": 5021,
      "Ġletters": 5022,
      "Ġmouth": 5023,
      "uting": 5024,
      "-A": 5025,
      "Ġsports": 5026,
      "ĠDNA": 5027,
      "era": 5028,
      "ĠOrgan": 5029,
      "Ġlived": 5030,
      "Ġhighlight": 5031,
      "Ġcoast": 5032,
      "Ġsem": 5033,
      "ented": 5034,
      "class": 5035,
      "Ġsets": 5036,
      "Ġparagraph": 5037,
      "64": 5038,
      "Ġphenomen": 5039,
      "gebra": 5040,
      "ĠGovern": 5041,
      "Ġcognitive": 5042,
      "Ġintegr": 5043,
      "Ġarray": 5044,
      "Ġsouth": 5045,
      "ĠCOVID": 5046,
      "ĠMoreover": 5047,
      "Ġmessage": 5048,
      "Ġclasses": 5049,
      "iant": 5050,
      "Ġincreasingly": 5051,
      "tes": 5052,
      "ĠSpanish": 5053,
      "Ġenvironments": 5054,
      "la": 5055,
      "Ġcharg": 5056,
      "Ġcomponent": 5057,
      "ING": 5058,
      "Ġfocused": 5059,
      "ux": 5060,
      "Ġdrugs": 5061,
      "ĠMc": 5062,
      "Ġrecently": 5063,
      "ondon": 5064,
      "Ġnative": 5065,
      "Ġroll": 5066,
      "Ġson": 5067,
      "Ġplastic": 5068,
      "ham": 5069,
      "Ġsand": 5070,
      "ĠDesign": 5071,
      "Ġroots": 5072,
      "')Ċ": 5073,
      "azing": 5074,
      "Ġvision": 5075,
      "lege": 5076,
      "Ġconsult": 5077,
      "Ġsuitable": 5078,
      "Ġchoices": 5079,
      "ĠSur": 5080,
      "ĠSoci": 5081,
      "ĠElect": 5082,
      "Ġpurs": 5083,
      "ĠAD": 5084,
      "EL": 5085,
      "Ġangle": 5086,
      "Ġnorth": 5087,
      "Ġembra": 5088,
      "Ġsess": 5089,
      "rid": 5090,
      "_d": 5091,
      "Ġinvestment": 5092,
      ":**": 5093,
      "Ġseparate": 5094,
      "Ġpopulations": 5095,
      "ĠDav": 5096,
      "Ġprimarily": 5097,
      "Ġthesis": 5098,
      "poses": 5099,
      "Ġsmart": 5100,
      "ĠEast": 5101,
      "Ġpul": 5102,
      "Ġdespite": 5103,
      "Ġju": 5104,
      "Ġsurpr": 5105,
      "Ġoperation": 5106,
      "Ġroles": 5107,
      "Ġgeneration": 5108,
      "ishing": 5109,
      "Ġremov": 5110,
      "Ġapproximately": 5111,
      "ford": 5112,
      "ĠEnvironment": 5113,
      "Ġreaction": 5114,
      "cap": 5115,
      "Ġplaced": 5116,
      "Ġecosystem": 5117,
      "gypt": 5118,
      "Ġmatrix": 5119,
      "celer": 5120,
      "Ġnetworks": 5121,
      "Ġelectrical": 5122,
      "Ġphase": 5123,
      "ĠPython": 5124,
      "ĠGermany": 5125,
      "Ġjustice": 5126,
      "Ġbed": 5127,
      "Ġhimself": 5128,
      "Ġplayed": 5129,
      "ĠJanuary": 5130,
      "ĠFree": 5131,
      "Ġfaith": 5132,
      "Ġperspective": 5133,
      "Ġmist": 5134,
      "Ġoxygen": 5135,
      "ĠOb": 5136,
      "Ġcreation": 5137,
      "yles": 5138,
      "hyd": 5139,
      "Ġexcellent": 5140,
      "Cl": 5141,
      "ris": 5142,
      "Ġtold": 5143,
      "Ġmilk": 5144,
      "semb": 5145,
      "itage": 5146,
      "ĠJuly": 5147,
      ");": 5148,
      "ĠUnit": 5149,
      "Ġsecure": 5150,
      "enses": 5151,
      "Ġsong": 5152,
      "ĠStep": 5153,
      "Ġelim": 5154,
      "pen": 5155,
      "Ġbelieved": 5156,
      "[i": 5157,
      "life": 5158,
      "Ġartists": 5159,
      "Ġtissue": 5160,
      "Ġconsists": 5161,
      "Ġwinter": 5162,
      "Ġmotion": 5163,
      "ĠVir": 5164,
      "ĠMex": 5165,
      "erent": 5166,
      "Ġsnipp": 5167,
      "Ġtruth": 5168,
      "Ġorigin": 5169,
      "Ġcontinues": 5170,
      "Ġparticipants": 5171,
      "Ġfavorite": 5172,
      "Ġcalculate": 5173,
      "-B": 5174,
      "Ġvul": 5175,
      "Ġnearly": 5176,
      "ĠUK": 5177,
      "ĠBas": 5178,
      "Ġmotor": 5179,
      "Ġround": 5180,
      "ĠSeptember": 5181,
      "Ġstar": 5182,
      "PA": 5183,
      "esson": 5184,
      "Ġfaced": 5185,
      "Ġcro": 5186,
      "Ġsimpl": 5187,
      "Ġdialogue": 5188,
      "Ġintroduced": 5189,
      "anges": 5190,
      "Ġfreedom": 5191,
      "ĠGet": 5192,
      "olute": 5193,
      "Another": 5194,
      "Ġmiles": 5195,
      "Ġonto": 5196,
      "180": 5197,
      "Ġrace": 5198,
      "tenance": 5199,
      "idden": 5200,
      "Ġelectricity": 5201,
      "eline": 5202,
      "Ġunivers": 5203,
      "ĠSy": 5204,
      "Ġfollows": 5205,
      "Ġwrote": 5206,
      "Ġhighest": 5207,
      "Ġviolence": 5208,
      "inations": 5209,
      "Ġtemperatures": 5210,
      "ĠRiver": 5211,
      "Ġod": 5212,
      "ĠDon": 5213,
      "Ġorganic": 5214,
      "Ġthousands": 5215,
      "Ġeight": 5216,
      "acing": 5217,
      "aign": 5218,
      "Ġreferred": 5219,
      "Ġsentences": 5220,
      "ĠBecause": 5221,
      "Ġimpacts": 5222,
      "Ġratio": 5223,
      "uing": 5224,
      "Ġplease": 5225,
      "Qu": 5226,
      "Ġrecommended": 5227,
      "from": 5228,
      "Ġbud": 5229,
      "Ġheavy": 5230,
      "ĠÂł": 5231,
      "Ġdegrees": 5232,
      "Ġtox": 5233,
      "Ġstaff": 5234,
      "asion": 5235,
      "Ġï": 5236,
      "useum": 5237,
      "Ġinstitutions": 5238,
      "ĠOctober": 5239,
      "ĠNews": 5240,
      "ushing": 5241,
      "osite": 5242,
      "Ġdogs": 5243,
      "ĠPark": 5244,
      "ĠAustralia": 5245,
      "ĠArch": 5246,
      "Ġthor": 5247,
      "Ġisol": 5248,
      "Ġworked": 5249,
      "Ġformation": 5250,
      "Ġlandscape": 5251,
      "Ġcultiv": 5252,
      "ĠFood": 5253,
      "ĠST": 5254,
      "och": 5255,
      "Ġmale": 5256,
      "''": 5257,
      "Ġdivided": 5258,
      "ĠGreek": 5259,
      "Ġsav": 5260,
      "ĠWilliam": 5261,
      "ĠDiff": 5262,
      "DF": 5263,
      "house": 5264,
      "Ġproperly": 5265,
      "Ġrelatively": 5266,
      "Ġsuggests": 5267,
      "roph": 5268,
      "ĠMake": 5269,
      "rence": 5270,
      "ev": 5271,
      "ĠEvery": 5272,
      "reate": 5273,
      "ĠHuman": 5274,
      "Ġseeking": 5275,
      "Ġlinear": 5276,
      "Ġliquid": 5277,
      "Some": 5278,
      "Ġcharge": 5279,
      "Ġhelped": 5280,
      "urns": 5281,
      "orge": 5282,
      "Ġmel": 5283,
      "Ð¾Ð": 5284,
      "ulf": 5285,
      "Ġnp": 5286,
      "ken": 5287,
      "Ġvs": 5288,
      "Ġspiritual": 5289,
      "Ġdatab": 5290,
      "Ġhttp": 5291,
      "ĠVol": 5292,
      "Ġpassed": 5293,
      "Ġpros": 5294,
      "ĠPower": 5295,
      "cript": 5296,
      "asive": 5297,
      "Ġscenari": 5298,
      "Ġcopy": 5299,
      "rum": 5300,
      "Ġpurposes": 5301,
      "Ġseg": 5302,
      "ĠTechnology": 5303,
      "Ġaudience": 5304,
      "Ġrelease": 5305,
      "alt": 5306,
      "Ġantib": 5307,
      "OS": 5308,
      "Ġpun": 5309,
      "Ġperhaps": 5310,
      "Ġsequence": 5311,
      "Ġchronic": 5312,
      "Ġfederal": 5313,
      "isation": 5314,
      "ictionary": 5315,
      "Ġattrib": 5316,
      "oding": 5317,
      "Ġvast": 5318,
      "En": 5319,
      "word": 5320,
      "Ġhomes": 5321,
      "Ġmovements": 5322,
      "Ġdro": 5323,
      "ruary": 5324,
      "47": 5325,
      "Ġdream": 5326,
      "Des": 5327,
      "otic": 5328,
      "Ġkeeping": 5329,
      "Ġcorrespond": 5330,
      "Imagine": 5331,
      "_n": 5332,
      "ĠFrance": 5333,
      "_s": 5334,
      "Ġincred": 5335,
      "-M": 5336,
      "Ġign": 5337,
      "eding": 5338,
      "Ġliterary": 5339,
      "Ġperformed": 5340,
      "rich": 5341,
      "Ġconducted": 5342,
      "Ġinflamm": 5343,
      "icated": 5344,
      "ĠEv": 5345,
      "-up": 5346,
      "Ġsmooth": 5347,
      "Ġsyn": 5348,
      "Ġwat": 5349,
      "usiness": 5350,
      "Ġaid": 5351,
      "Ġgenerate": 5352,
      "Se": 5353,
      "Ġmajority": 5354,
      "Ġimproving": 5355,
      "Ġoffering": 5356,
      "OL": 5357,
      "ĠProgram": 5358,
      "Ġreports": 5359,
      "Ġcompl": 5360,
      "rael": 5361,
      "ias": 5362,
      "Ġhelpful": 5363,
      "inant": 5364,
      "Ġsignal": 5365,
      "oose": 5366,
      "iced": 5367,
      "Ġrein": 5368,
      "ĠPsych": 5369,
      "Ġgoods": 5370,
      "nic": 5371,
      "Ġreplace": 5372,
      "Ġdrawing": 5373,
      "Ġsteel": 5374,
      "ĠWestern": 5375,
      "Ġtheore": 5376,
      "Ġbottom": 5377,
      "Ġmit": 5378,
      "46": 5379,
      "Ġperspectives": 5380,
      "ĠSimilar": 5381,
      "riculum": 5382,
      "Ġadvantages": 5383,
      "ĠTime": 5384,
      "Ġexchange": 5385,
      "Ġfine": 5386,
      "orous": 5387,
      "Ġvegetables": 5388,
      "Ġtraditions": 5389,
      "icy": 5390,
      "Ġlib": 5391,
      "49": 5392,
      "Ġextremely": 5393,
      "Ġthick": 5394,
      "ĠSer": 5395,
      "Ġsubjects": 5396,
      "Ġdrive": 5397,
      "ĠPublic": 5398,
      "Ġlibrary": 5399,
      "08": 5400,
      "Ġprompt": 5401,
      "Ġcarefully": 5402,
      "ĠPost": 5403,
      "mp": 5404,
      "ï¼": 5405,
      "tion": 5406,
      "inder": 5407,
      "see": 5408,
      "Ġhyper": 5409,
      "ĠAdd": 5410,
      "Ġowners": 5411,
      "ĠDecember": 5412,
      "Ġadvantage": 5413,
      "zy": 5414,
      "More": 5415,
      "(a": 5416,
      "add": 5417,
      "Ġple": 5418,
      "abric": 5419,
      "Ġmedium": 5420,
      "Ġterrit": 5421,
      "ĠEngine": 5422,
      "Ġprepared": 5423,
      "inger": 5424,
      "CS": 5425,
      "ĠLevel": 5426,
      "Ġadvoc": 5427,
      "Ġparty": 5428,
      "abul": 5429,
      "Ġcos": 5430,
      "Ġrecognize": 5431,
      "Ġfamiliar": 5432,
      "Ġfelt": 5433,
      "Ġemissions": 5434,
      "ault": 5435,
      "ormal": 5436,
      "ĠNovember": 5437,
      "ĠExper": 5438,
      "Ġsamples": 5439,
      "ĠTop": 5440,
      "ĠCollege": 5441,
      "ĠIN": 5442,
      "men": 5443,
      "Ġgene": 5444,
      "They": 5445,
      "aming": 5446,
      "Ġalign": 5447,
      "oma": 5448,
      "Ġformer": 5449,
      "ĠMet": 5450,
      "Ã¡": 5451,
      "Ġseeds": 5452,
      "ĠWhe": 5453,
      "orld": 5454,
      "ĠUp": 5455,
      "IG": 5456,
      "ĠRemember": 5457,
      "Ġhuge": 5458,
      "son": 5459,
      "enth": 5460,
      "Ġinterested": 5461,
      "Ġdetermined": 5462,
      "ĠDec": 5463,
      "Ġmonitoring": 5464,
      "estions": 5465,
      "Ġaddressing": 5466,
      "Ġreader": 5467,
      "Ġsettings": 5468,
      "Ġnotice": 5469,
      "Ġerror": 5470,
      "met": 5471,
      "All": 5472,
      "Ġinvolving": 5473,
      "akers": 5474,
      "After": 5475,
      "egin": 5476,
      "clusive": 5477,
      "Ġmanufacture": 5478,
      "Ġbillion": 5479,
      "Ġcourt": 5480,
      "Ġgenerations": 5481,
      "ĠFam": 5482,
      "Ġinformed": 5483,
      "ĠBen": 5484,
      "Ġsac": 5485,
      "Ġsuppl": 5486,
      "ĠLa": 5487,
      "Ġfaster": 5488,
      "ĠDet": 5489,
      "Ġdelve": 5490,
      "Ġcredit": 5491,
      "Ġhypot": 5492,
      "Ġpal": 5493,
      "ĠDisc": 5494,
      "OU": 5495,
      "Ġscreen": 5496,
      "Ġintended": 5497,
      "-se": 5498,
      "Ġinnovative": 5499,
      "ny": 5500,
      "asure": 5501,
      "ĠInstead": 5502,
      "time": 5503,
      "Ġvulner": 5504,
      "ologists": 5505,
      "Ġprobability": 5506,
      "ĠLondon": 5507,
      "ĠOF": 5508,
      "rastructure": 5509,
      "ĠOff": 5510,
      "itative": 5511,
      "Ġenable": 5512,
      "Ġtrib": 5513,
      "roid": 5514,
      "Ġfigures": 5515,
      "ĠCare": 5516,
      "ĠFact": 5517,
      "ĠPresident": 5518,
      "emy": 5519,
      "Ġemployees": 5520,
      "Ġinsect": 5521,
      "Pl": 5522,
      "bed": 5523,
      "cription": 5524,
      "ĠStudies": 5525,
      "Ġappears": 5526,
      "ĠEgypt": 5527,
      "Ġinstructions": 5528,
      "pped": 5529,
      "ĠStudy": 5530,
      "Ġgather": 5531,
      "Ġlinked": 5532,
      "Ġpollution": 5533,
      "icious": 5534,
      "arrow": 5535,
      "Ġparticles": 5536,
      "allel": 5537,
      "Ġtrou": 5538,
      "Ġresponsibility": 5539,
      "Ġaffects": 5540,
      "........": 5541,
      "Ġselection": 5542,
      "Ġresol": 5543,
      "Ġspot": 5544,
      "ĠJapanese": 5545,
      "Ġshapes": 5546,
      "Ġcircuit": 5547,
      "ĠDel": 5548,
      "ĠInc": 5549,
      "rect": 5550,
      "Ġdesired": 5551,
      "Ġgrad": 5552,
      "Ġcenturies": 5553,
      "lig": 5554,
      "Ġeventually": 5555,
      "ĠCong": 5556,
      "omas": 5557,
      "rors": 5558,
      "Ġdram": 5559,
      "(d": 5560,
      "Ġcustomers": 5561,
      "active": 5562,
      "Ġinfections": 5563,
      "ĠMult": 5564,
      "ĠTwo": 5565,
      "orical": 5566,
      "Ġnutrients": 5567,
      "ometimes": 5568,
      "Ġstring": 5569,
      "comm": 5570,
      "Ġongoing": 5571,
      "Ġconvent": 5572,
      "iate": 5573,
      "Ġtreatments": 5574,
      "First": 5575,
      "ĠSch": 5576,
      "Ġhop": 5577,
      "Ġskill": 5578,
      "Ġimpl": 5579,
      "Ġupper": 5580,
      "Ġdefine": 5581,
      "ðĿ": 5582,
      "Ġguidance": 5583,
      "ĠProfess": 5584,
      "lick": 5585,
      "leg": 5586,
      "Ġclar": 5587,
      "OT": 5588,
      "ĠRec": 5589,
      "ĠSet": 5590,
      "No": 5591,
      "Ġhorm": 5592,
      "aint": 5593,
      "Ġslightly": 5594,
      "Ġdouble": 5595,
      "uracy": 5596,
      "atically": 5597,
      "estyle": 5598,
      "Ġmining": 5599,
      "ĠHouse": 5600,
      "Ġgod": 5601,
      "\")Ċ": 5602,
      "Ġdiam": 5603,
      "Ġoffice": 5604,
      "Ġamb": 5605,
      "ĠInf": 5606,
      "ĠAsia": 5607,
      "âĢĿ,": 5608,
      "Ġsin": 5609,
      "Ġintegration": 5610,
      "150": 5611,
      "Ġimmediately": 5612,
      "Ġfruits": 5613,
      "Ġspring": 5614,
      "Ġbehaviors": 5615,
      "ĠGoogle": 5616,
      "ĠBel": 5617,
      "Ġbrief": 5618,
      "Ġsurvey": 5619,
      "ĠHave": 5620,
      "Ġalt": 5621,
      "oo": 5622,
      "ĠReview": 5623,
      "Ġspaces": 5624,
      "Ġchann": 5625,
      "Ġpsychological": 5626,
      "Ġcontaining": 5627,
      "Ġbarri": 5628,
      "Once": 5629,
      "-being": 5630,
      "Ġmainly": 5631,
      "cal": 5632,
      "za": 5633,
      "Ġminor": 5634,
      "Ġcompare": 5635,
      "Ġvill": 5636,
      "ĠBoth": 5637,
      "Ġrecords": 5638,
      "Ġvoice": 5639,
      "Ġscholars": 5640,
      "Ġcast": 5641,
      "Ġbone": 5642,
      "Ġamer": 5643,
      "erals": 5644,
      "Ġcarried": 5645,
      "Ġcoun": 5646,
      "Ġinnovation": 5647,
      "uilding": 5648,
      "Read": 5649,
      "Ġprocedure": 5650,
      "ĠMor": 5651,
      "ky": 5652,
      "tage": 5653,
      "Ġlooks": 5654,
      "42": 5655,
      "Ġbuildings": 5656,
      "Ġtal": 5657,
      "mark": 5658,
      "Ġanalyze": 5659,
      "Ġappreciate": 5660,
      "ails": 5661,
      "Ġhour": 5662,
      "Ġmanufacturing": 5663,
      "ĠMiddle": 5664,
      "Ġoperating": 5665,
      "Ġamounts": 5666,
      "Ġuns": 5667,
      "ĠChall": 5668,
      "omic": 5669,
      "ycl": 5670,
      "Ġdri": 5671,
      "Ġmac": 5672,
      "Ġdepends": 5673,
      "ey": 5674,
      "ĠWriting": 5675,
      "Ġdiscipl": 5676,
      "conomic": 5677,
      "ĠLanguage": 5678,
      "Ġkn": 5679,
      "ĠWeb": 5680,
      "ĠSum": 5681,
      "ĠGreen": 5682,
      "Ġethical": 5683,
      "asp": 5684,
      "ĠFin": 5685,
      "Ġkinds": 5686,
      "Ġtherm": 5687,
      "Ġoptim": 5688,
      "ĠMal": 5689,
      "Ġalgorithm": 5690,
      "Ġvirtual": 5691,
      "Ġmission": 5692,
      "Ġclearly": 5693,
      "Ġtooth": 5694,
      "ĠTur": 5695,
      "ĠBr": 5696,
      "Ġselected": 5697,
      "Ġcollaboration": 5698,
      "oughly": 5699,
      "ĠKnow": 5700,
      "Ġtreated": 5701,
      "Ġclosely": 5702,
      "erved": 5703,
      "Ġintric": 5704,
      "Ġsubt": 5705,
      "Ġresist": 5706,
      "Ġtit": 5707,
      "Ġfiction": 5708,
      "ĠMedic": 5709,
      "Ġrenew": 5710,
      "Ġoral": 5711,
      "Ġperiods": 5712,
      "Ġserves": 5713,
      "Ġfluid": 5714,
      "Ind": 5715,
      "Ġplayers": 5716,
      "Ġdiscussions": 5717,
      "Ġleadership": 5718,
      "De": 5719,
      "qrt": 5720,
      "Ġtrain": 5721,
      "Ġseven": 5722,
      "AB": 5723,
      "stract": 5724,
      "ups": 5725,
      "Ġconservation": 5726,
      "Ġ\"\"\"": 5727,
      "Ġsecret": 5728,
      "ĠYear": 5729,
      "Ġprecise": 5730,
      "Ġpron": 5731,
      "Ġpotentially": 5732,
      "mas": 5733,
      "Ġhit": 5734,
      "iology": 5735,
      "Ġera": 5736,
      "utive": 5737,
      "Ġves": 5738,
      "Ġharmful": 5739,
      "Ġnurs": 5740,
      "ĠProject": 5741,
      "ĠUnion": 5742,
      "Ġcris": 5743,
      "iverse": 5744,
      "Ġenab": 5745,
      "CI": 5746,
      "Ġdied": 5747,
      "Ġfoundation": 5748,
      "Ġaren": 5749,
      "Ġchart": 5750,
      "Ġexercises": 5751,
      "Ġprogramming": 5752,
      "ĠChildren": 5753,
      "ĠHy": 5754,
      "Ġcoal": 5755,
      "Ġdecades": 5756,
      "Ġriver": 5757,
      "Ġsummary": 5758,
      "Ġabilities": 5759,
      "ĠMich": 5760,
      "Ġlung": 5761,
      "Ġfract": 5762,
      "Ġwealth": 5763,
      "Ġproport": 5764,
      "coming": 5765,
      "rog": 5766,
      "Ġlatest": 5767,
      "Ġmarg": 5768,
      "ĠInternet": 5769,
      "Ġregul": 5770,
      "ĠIslam": 5771,
      "ĠIdent": 5772,
      "Ġprocedures": 5773,
      "Ġpand": 5774,
      "ĠAns": 5775,
      "ĠStand": 5776,
      "Ġprices": 5777,
      "Ġneuro": 5778,
      "Ġmeat": 5779,
      "66": 5780,
      "Ġregularly": 5781,
      "hent": 5782,
      "ĠChurch": 5783,
      "Ġviews": 5784,
      "--------------------------------": 5785,
      "Ġreduction": 5786,
      "Ġacceler": 5787,
      "ĠÂ·": 5788,
      "Ġmer": 5789,
      "Ġatmosphere": 5790,
      "ndrome": 5791,
      "ipped": 5792,
      "inter": 5793,
      "ĠAir": 5794,
      "Ġgave": 5795,
      "Ġadvice": 5796,
      "roy": 5797,
      "Ġeggs": 5798,
      "inent": 5799,
      "ĠPort": 5800,
      "ashington": 5801,
      "road": 5802,
      "oke": 5803,
      "From": 5804,
      "Ġunex": 5805,
      "Ġdiscrim": 5806,
      "Ġfostering": 5807,
      "ĠWho": 5808,
      "ifies": 5809,
      "Ġflowers": 5810,
      "ĠAnalysis": 5811,
      "Ġconsistent": 5812,
      "Ġinsight": 5813,
      "import": 5814,
      "Ġindicate": 5815,
      "Ġblog": 5816,
      "Ġunderlying": 5817,
      "Ġboost": 5818,
      "oyal": 5819,
      "Ġingredients": 5820,
      "Ġfailure": 5821,
      "ĠSecond": 5822,
      "Ġsector": 5823,
      "ĠLatin": 5824,
      "Us": 5825,
      "Ġmaintenance": 5826,
      "Ġcapable": 5827,
      "Ġturned": 5828,
      "-related": 5829,
      "Ġwriters": 5830,
      "ashion": 5831,
      "Ġchain": 5832,
      "Ġobtained": 5833,
      "Ġconcentration": 5834,
      "Ġyellow": 5835,
      "Ġocean": 5836,
      "Ġmoral": 5837,
      "Ġdeliver": 5838,
      "ĠMac": 5839,
      "ĠIsrael": 5840,
      "Ġartificial": 5841,
      "ĠSan": 5842,
      "ĠMicro": 5843,
      "udden": 5844,
      "ĠPhil": 5845,
      "riage": 5846,
      "othing": 5847,
      "Ġmoist": 5848,
      "Ġensures": 5849,
      "Ġtutorial": 5850,
      "ĠHome": 5851,
      "ometry": 5852,
      "ĠFound": 5853,
      "Ġvibr": 5854,
      "Ġworry": 5855,
      "Ġwriter": 5856,
      "Ġshar": 5857,
      "Ġcircle": 5858,
      "Ġcampaign": 5859,
      "Ġdensity": 5860,
      ".C": 5861,
      "Ġpaint": 5862,
      "Ġamazing": 5863,
      "nam": 5864,
      "faces": 5865,
      "ida": 5866,
      "Ġplatforms": 5867,
      "Ġdiagnosis": 5868,
      "Ġhero": 5869,
      "Ġmeeting": 5870,
      "ĠCommon": 5871,
      "Ġinteraction": 5872,
      "Ġhear": 5873,
      "ifications": 5874,
      "arant": 5875,
      "Ġcreativity": 5876,
      "ownload": 5877,
      "ellect": 5878,
      "abulary": 5879,
      "Ġcrus": 5880,
      "07": 5881,
      "style": 5882,
      "Ġmanaging": 5883,
      "Ġdie": 5884,
      "Ġsupporting": 5885,
      "nes": 5886,
      "Ġvent": 5887,
      "Ġcomposition": 5888,
      "Ã¢": 5889,
      "ĠExp": 5890,
      "display": 5891,
      "Ġpreviously": 5892,
      "itness": 5893,
      "lis": 5894,
      "Ġglob": 5895,
      "anted": 5896,
      "čĊčĊ": 5897,
      "Ġbeauty": 5898,
      "ĠStr": 5899,
      "ĠAtt": 5900,
      "ĠKeep": 5901,
      "plit": 5902,
      "ĠList": 5903,
      "Ġcomputers": 5904,
      "Ġtouch": 5905,
      "Ġdangerous": 5906,
      "Ġelectronic": 5907,
      "186": 5908,
      "Ġcert": 5909,
      "Ġpret": 5910,
      "Ġwire": 5911,
      "Ġtransition": 5912,
      "sec": 5913,
      "ocal": 5914,
      "ĠDem": 5915,
      "Ġcombined": 5916,
      "ĠAdv": 5917,
      "Ġdu": 5918,
      ".;": 5919,
      "Ġappearance": 5920,
      "Ġmeant": 5921,
      "aughter": 5922,
      "Ġwis": 5923,
      "/or": 5924,
      "Ġradio": 5925,
      "Ġcircumst": 5926,
      "ĠEmp": 5927,
      "rations": 5928,
      "Ġclassic": 5929,
      "ether": 5930,
      "Ġtexts": 5931,
      "Ġcreates": 5932,
      "Ġstages": 5933,
      "Ġminimum": 5934,
      "Ġshaping": 5935,
      "à¥": 5936,
      "-D": 5937,
      "Te": 5938,
      "Ġchurch": 5939,
      "ĠDist": 5940,
      "Ġdiscussed": 5941,
      "iki": 5942,
      "Ġframework": 5943,
      "ingly": 5944,
      "Ġinjury": 5945,
      "Ġproteins": 5946,
      "Ġrul": 5947,
      "ĠAssociation": 5948,
      "Ġhappened": 5949,
      "Ġreleased": 5950,
      "Ġwave": 5951,
      "85": 5952,
      "Äģ": 5953,
      "idth": 5954,
      "Ġfeedback": 5955,
      "Ġbegins": 5956,
      "Ġwear": 5957,
      "Ġfabric": 5958,
      "Ġdental": 5959,
      "MS": 5960,
      "Ġpictures": 5961,
      "ressed": 5962,
      "Ġtruly": 5963,
      "ado": 5964,
      "Ġprepare": 5965,
      "ersonal": 5966,
      "Ġinterview": 5967,
      "Ġcommunicate": 5968,
      "Ġcutting": 5969,
      "Have": 5970,
      "ourage": 5971,
      "Ġmetab": 5972,
      "Ġequival": 5973,
      "icians": 5974,
      "ĠBet": 5975,
      "with": 5976,
      "Ġlegis": 5977,
      "Our": 5978,
      "lo": 5979,
      "ĠSociety": 5980,
      "ĠAlex": 5981,
      "Ġradiation": 5982,
      "ĠFore": 5983,
      "ya": 5984,
      "Ġmobile": 5985,
      "Ġcooking": 5986,
      "riend": 5987,
      "ĠFebruary": 5988,
      "Ġinfrastructure": 5989,
      "ĠTHE": 5990,
      "-n": 5991,
      "########": 5992,
      "Ġannual": 5993,
      "ĠImagine": 5994,
      "ache": 5995,
      "Ġconv": 5996,
      "Ġhoriz": 5997,
      "Ġkm": 5998,
      "ĠQuestions": 5999,
      "Ġourselves": 6000,
      "Ġrelax": 6001,
      "itors": 6002,
      "Ġlabel": 6003,
      "ĠMr": 6004,
      "icing": 6005,
      "Ġstock": 6006,
      "Ġbattery": 6007,
      "ĠSte": 6008,
      "Ġjobs": 6009,
      "Ġlik": 6010,
      "how": 6011,
      "][": 6012,
      "Ġlies": 6013,
      "ĠJewish": 6014,
      "Ġconfidence": 6015,
      "oper": 6016,
      "istan": 6017,
      "ascular": 6018,
      "ĠCounty": 6019,
      "RI": 6020,
      "09": 6021,
      "ĠPal": 6022,
      "Ġhandle": 6023,
      "Ġcontinuous": 6024,
      "(t": 6025,
      "Ġtaught": 6026,
      "Ġmeasured": 6027,
      "Ġleaving": 6028,
      "Ġshowing": 6029,
      "Ġcourses": 6030,
      "Ġsaying": 6031,
      "Ġpp": 6032,
      "aker": 6033,
      "ĠDirect": 6034,
      "Ġoffered": 6035,
      "imens": 6036,
      "Ġtransl": 6037,
      "Ġultimately": 6038,
      "Ġserved": 6039,
      "-old": 6040,
      "Ġrepresentation": 6041,
      "Ġregulations": 6042,
      "Ġresilience": 6043,
      "Ġinstruction": 6044,
      "Ġexplained": 6045,
      "Ġnuclear": 6046,
      "cules": 6047,
      "ologist": 6048,
      "Ġphone": 6049,
      "lines": 6050,
      "Ġrecovery": 6051,
      "ĠEnergy": 6052,
      "ially": 6053,
      "Ġdocuments": 6054,
      "roduct": 6055,
      "ĠThink": 6056,
      "Ġabuse": 6057,
      "umin": 6058,
      "Ġestimated": 6059,
      "Ġscore": 6060,
      "Ġsolving": 6061,
      "hi": 6062,
      "Ġvel": 6063,
      "unk": 6064,
      "Ġdoub": 6065,
      "-time": 6066,
      "Ġgre": 6067,
      "Ġloved": 6068,
      "Ġproposed": 6069,
      "Ġsalt": 6070,
      "Ġmere": 6071,
      "ava": 6072,
      "Ġmanner": 6073,
      "Ġchosen": 6074,
      "Ġcustomer": 6075,
      "ĠCoun": 6076,
      "Ġvessel": 6077,
      "41": 6078,
      "Ġseed": 6079,
      "Ġindustries": 6080,
      "ulin": 6081,
      "Ġnations": 6082,
      "Ġflo": 6083,
      "Ġtum": 6084,
      "Ġcomment": 6085,
      "Ġsubstant": 6086,
      "Ġenables": 6087,
      "plicated": 6088,
      "Ġbreast": 6089,
      "Ġgenes": 6090,
      "Ġmuscles": 6091,
      "ĠCourse": 6092,
      "Ġtypical": 6093,
      "Ġthin": 6094,
      "Ġgar": 6095,
      "ĠWorksheets": 6096,
      "According": 6097,
      "Ġtargeted": 6098,
      "Ġoptimal": 6099,
      "âĢĿ.": 6100,
      "Ġformal": 6101,
      "Ġsubsequ": 6102,
      "ĠGrade": 6103,
      "Ġaccompl": 6104,
      "Ġparties": 6105,
      "Ġlayers": 6106,
      "Ġyouth": 6107,
      "Ġspend": 6108,
      "Ġfirm": 6109,
      "400": 6110,
      "Ġaccuracy": 6111,
      "while": 6112,
      "rd": 6113,
      "Ġresponses": 6114,
      "ĠWashington": 6115,
      "ivery": 6116,
      "Ġdriving": 6117,
      "iday": 6118,
      "Ġfiles": 6119,
      "Ġneut": 6120,
      "Ġgram": 6121,
      "-le": 6122,
      "lements": 6123,
      "New": 6124,
      "Ġbond": 6125,
      "Ġhappy": 6126,
      "Ġmechanisms": 6127,
      "Ġmathematics": 6128,
      "ĠSun": 6129,
      "ael": 6130,
      "Ġdedicated": 6131,
      "Ġlic": 6132,
      "Ġsell": 6133,
      "iform": 6134,
      "rest": 6135,
      "ortunately": 6136,
      "pping": 6137,
      "Ġphilosophy": 6138,
      "othe": 6139,
      "Ġmostly": 6140,
      "astern": 6141,
      "Ġinsurance": 6142,
      "vity": 6143,
      "Ġcorpor": 6144,
      "ĠLike": 6145,
      "Ġkill": 6146,
      "Ġcere": 6147,
      "Ġmaybe": 6148,
      "Ġstone": 6149,
      "iled": 6150,
      "Ġraw": 6151,
      "Ġvector": 6152,
      "ĠGood": 6153,
      "ĠFre": 6154,
      ".d": 6155,
      "ĠComput": 6156,
      "Ġcertainly": 6157,
      "Ġtalking": 6158,
      "Ġcra": 6159,
      "uls": 6160,
      "Ġconcern": 6161,
      "agers": 6162,
      "Ġstyles": 6163,
      "ĠTreat": 6164,
      "Ġusage": 6165,
      "Ġconfirm": 6166,
      "ĠUN": 6167,
      "ĠAbout": 6168,
      "Ġproof": 6169,
      "Ġspent": 6170,
      "Ġvitamin": 6171,
      "Ġclim": 6172,
      "Ġelev": 6173,
      "Ġvehicle": 6174,
      "Ġdecrease": 6175,
      "ĠInformation": 6176,
      "Ġbird": 6177,
      "ĠSign": 6178,
      "Ġnerv": 6179,
      "Ġmort": 6180,
      "ĠLeg": 6181,
      "ĠGr": 6182,
      "ĠLiter": 6183,
      "ĠIns": 6184,
      ".D": 6185,
      "Ġarm": 6186,
      "06": 6187,
      "Ġobst": 6188,
      "Ġarchitecture": 6189,
      "Ġsufficient": 6190,
      "Ġmachines": 6191,
      "Ġcompleted": 6192,
      "mic": 6193,
      "-making": 6194,
      "BC": 6195,
      "ĠOld": 6196,
      "Ġlifestyle": 6197,
      "Ġfunctional": 6198,
      "berg": 6199,
      "101": 6200,
      "ĠExamples": 6201,
      "well": 6202,
      "cers": 6203,
      "Ġsou": 6204,
      "Ġleader": 6205,
      "ĠKey": 6206,
      "Ġabsolute": 6207,
      "Ġhabits": 6208,
      "Ġmeaningful": 6209,
      "ago": 6210,
      "Ġbiological": 6211,
      "Ġfocuses": 6212,
      "Ġsensitive": 6213,
      "Ġpolitics": 6214,
      "ĠSl": 6215,
      "Ġbrand": 6216,
      "Ġhearing": 6217,
      "Ġevaluate": 6218,
      "Ġsubstance": 6219,
      "Ġincorporating": 6220,
      "Ġitem": 6221,
      "atric": 6222,
      "Ġtransact": 6223,
      "CH": 6224,
      "Ġbeneficial": 6225,
      "ĠDig": 6226,
      "Ġcovers": 6227,
      "Ġexistence": 6228,
      "wood": 6229,
      ".m": 6230,
      "\".ĊĊ": 6231,
      "Ġdefic": 6232,
      "rates": 6233,
      "displaystyle": 6234,
      "ipping": 6235,
      "Ġconsidering": 6236,
      "Ġregional": 6237,
      "Ġstarts": 6238,
      "ĠCentral": 6239,
      "Ġprinciple": 6240,
      "Ġcolumn": 6241,
      "osa": 6242,
      "ĠRepublic": 6243,
      "ped": 6244,
      "189": 6245,
      "43": 6246,
      "const": 6247,
      "ometric": 6248,
      "Ġtheme": 6249,
      "ĠVis": 6250,
      "Ġcloser": 6251,
      "Ġparallel": 6252,
      "-th": 6253,
      "herent": 6254,
      "ht": 6255,
      "Ġsnippet": 6256,
      "Ġdescribes": 6257,
      "ĠLearn": 6258,
      "ĠArab": 6259,
      "apping": 6260,
      "-P": 6261,
      "(c": 6262,
      "Ġtiny": 6263,
      "Ġgrand": 6264,
      "gin": 6265,
      "Ġlots": 6266,
      "Ġlearners": 6267,
      "Ġevaluation": 6268,
      "upp": 6269,
      "ĠSuch": 6270,
      "ĠAnother": 6271,
      "Ġdesigns": 6272,
      "Ġinspired": 6273,
      "ĠProble": 6274,
      "rency": 6275,
      "ĠJames": 6276,
      "bb": 6277,
      "Ġengagement": 6278,
      "Ġinches": 6279,
      "Ġuniversity": 6280,
      "Ġsecondary": 6281,
      "ĠCreat": 6282,
      "Ġtransportation": 6283,
      "Ġrecognition": 6284,
      "Ġattacks": 6285,
      "Ġimplications": 6286,
      "Ġtow": 6287,
      "Ġpark": 6288,
      "Ġnan": 6289,
      "ocity": 6290,
      "icism": 6291,
      "Ġpair": 6292,
      "Ġinstrument": 6293,
      "Ġimmig": 6294,
      "olving": 6295,
      "Ġroutine": 6296,
      "Ġcareful": 6297,
      "ĠAcad": 6298,
      "Ġrub": 6299,
      "Ġshop": 6300,
      "ĠMain": 6301,
      "Ġboundaries": 6302,
      "________________": 6303,
      "Ġintervention": 6304,
      "Ġprime": 6305,
      "Ġapart": 6306,
      "ĠMary": 6307,
      "itz": 6308,
      "Ġcrim": 6309,
      "Ġmathematical": 6310,
      "CT": 6311,
      "pat": 6312,
      "Ġexamining": 6313,
      "ĠChem": 6314,
      "Ġcardi": 6315,
      "Ġedge": 6316,
      "Ġacknow": 6317,
      "Ġraise": 6318,
      "ria": 6319,
      "ogether": 6320,
      "56": 6321,
      "Ġaimed": 6322,
      "Ġphysics": 6323,
      "urd": 6324,
      "Ġreliable": 6325,
      "erving": 6326,
      "ocation": 6327,
      "Ġhaz": 6328,
      "Ġwaves": 6329,
      "Ġnavigate": 6330,
      "rolog": 6331,
      "ffee": 6332,
      "ĠConsider": 6333,
      "aturally": 6334,
      "Ġtwist": 6335,
      "Ġlose": 6336,
      "Ġphotos": 6337,
      "Ġintroduce": 6338,
      "net": 6339,
      "Ġspeaking": 6340,
      "ĠSam": 6341,
      "idents": 6342,
      "what": 6343,
      "120": 6344,
      "Ġplayer": 6345,
      "ipes": 6346,
      "SA": 6347,
      "ĠNon": 6348,
      "02": 6349,
      "rus": 6350,
      "Ġassistance": 6351,
      "len": 6352,
      "Ġcharacterized": 6353,
      "Ġmanip": 6354,
      "ĠBusiness": 6355,
      "ĠEffect": 6356,
      "(b": 6357,
      "input": 6358,
      "ij": 6359,
      "Ġflood": 6360,
      "-of": 6361,
      "king": 6362,
      "-F": 6363,
      "Ġoutcome": 6364,
      "stood": 6365,
      "Ġflat": 6366,
      "Ġbow": 6367,
      "Ġfinally": 6368,
      "LA": 6369,
      "Ġbattle": 6370,
      "Ġgrass": 6371,
      "ossible": 6372,
      "uma": 6373,
      "empl": 6374,
      "Ġimmun": 6375,
      "Ġremark": 6376,
      "-day": 6377,
      "Ġfixed": 6378,
      "Ġpregnancy": 6379,
      "ĠSaf": 6380,
      "Ġcircumstances": 6381,
      "Ġotherwise": 6382,
      "Ġgenerated": 6383,
      "Ġdynamics": 6384,
      "Ġrapidly": 6385,
      "Ġnarratives": 6386,
      "ander": 6387,
      "Ġimplementation": 6388,
      "Ġdomain": 6389,
      "ka": 6390,
      "Ġsurgery": 6391,
      "Ġauthority": 6392,
      ").ĊĊ": 6393,
      "Ġcollected": 6394,
      "DA": 6395,
      "ĠMethod": 6396,
      "Ġunexpected": 6397,
      "ĠÃĹ": 6398,
      "ĠMean": 6399,
      "irus": 6400,
      "ĠKore": 6401,
      "Ġlinks": 6402,
      "ÃŃ": 6403,
      "Ġmixed": 6404,
      "Ġconcrete": 6405,
      "ĠCivil": 6406,
      "ounced": 6407,
      "Ġvictim": 6408,
      "hav": 6409,
      "Ġmoved": 6410,
      "Ġacts": 6411,
      "rust": 6412,
      "Ġhospital": 6413,
      "Ġpersist": 6414,
      "'m": 6415,
      "ansion": 6416,
      "Ġcontrolled": 6417,
      "Ġinner": 6418,
      "Ġmagnetic": 6419,
      "fall": 6420,
      "itudes": 6421,
      "Ġdynamic": 6422,
      "ĠSee": 6423,
      "ĠDavid": 6424,
      "rons": 6425,
      "ĠBible": 6426,
      "Ġinvent": 6427,
      "ĠSal": 6428,
      "Ġscene": 6429,
      "Ġdecide": 6430,
      "ĠPers": 6431,
      "Ġlisten": 6432,
      "Ġcrisis": 6433,
      "88": 6434,
      "ĠHelp": 6435,
      "Ġtheories": 6436,
      "Ġcurriculum": 6437,
      "-like": 6438,
      "Ġrect": 6439,
      "Â·": 6440,
      "-L": 6441,
      "Ġshif": 6442,
      "Ġjoin": 6443,
      "Ġrecognized": 6444,
      "Ġfill": 6445,
      "Ġque": 6446,
      "ml": 6447,
      "oxide": 6448,
      "Ġ__": 6449,
      "Ġreb": 6450,
      "Ġincorporate": 6451,
      "ĠAcc": 6452,
      "Ġvoltage": 6453,
      "Ġimprovement": 6454,
      "Ġsales": 6455,
      "Ġhidden": 6456,
      "Ġintellect": 6457,
      "cium": 6458,
      "Ð»": 6459,
      "Ġconvert": 6460,
      "Ġauthent": 6461,
      "Ġsupported": 6462,
      "ditional": 6463,
      "Ġchemicals": 6464,
      "ĠStat": 6465,
      "Ġwhereas": 6466,
      "Ġswitch": 6467,
      "ĠWomen": 6468,
      "Ġdomestic": 6469,
      "asy": 6470,
      "aser": 6471,
      "Ġvehicles": 6472,
      "plication": 6473,
      "Ġmatch": 6474,
      "Ġelectron": 6475,
      "Ġcomparison": 6476,
      "Ġpig": 6477,
      "ĠWord": 6478,
      "ested": 6479,
      "ĠEst": 6480,
      "ĠMedical": 6481,
      "Ġmeasurement": 6482,
      "racy": 6483,
      "Ġnutrition": 6484,
      "Ġvolunt": 6485,
      "Ġcards": 6486,
      "Ġknows": 6487,
      "Ġafford": 6488,
      "ĠWind": 6489,
      "ĠMem": 6490,
      "Ġnit": 6491,
      "Ġtaste": 6492,
      "ints": 6493,
      "Ġsend": 6494,
      "pha": 6495,
      "ĠDoes": 6496,
      "Ġment": 6497,
      "Ġdivision": 6498,
      "Ġwants": 6499,
      "izer": 6500,
      "alian": 6501,
      "Ġages": 6502,
      "flow": 6503,
      "olf": 6504,
      "Ġbright": 6505,
      "icks": 6506,
      "77": 6507,
      "Ġderived": 6508,
      "ician": 6509,
      "icate": 6510,
      "ena": 6511,
      "Ġband": 6512,
      "ĠControl": 6513,
      "Ġexamination": 6514,
      "Ġmm": 6515,
      "Ġdiagram": 6516,
      "Ġcars": 6517,
      "which": 6518,
      "ĠWhite": 6519,
      "ĠAge": 6520,
      "Ġshift": 6521,
      "Ġfoss": 6522,
      "cos": 6523,
      "Before": 6524,
      "}$$": 6525,
      "Ġfrag": 6526,
      "Ġmedications": 6527,
      "Ġinequ": 6528,
      "Ġstick": 6529,
      "Ġpsychology": 6530,
      "Ġcloud": 6531,
      "Ġisland": 6532,
      "then": 6533,
      "Ġexposed": 6534,
      "Ġrom": 6535,
      "Ġfoster": 6536,
      "Ġdrawn": 6537,
      "Ġdatabase": 6538,
      "Ġkit": 6539,
      "]ĊĊ": 6540,
      "inity": 6541,
      "Ġdemonstrate": 6542,
      "ĠÏ": 6543,
      "Ġperce": 6544,
      "aks": 6545,
      "That": 6546,
      "Ġreactions": 6547,
      "anged": 6548,
      "gal": 6549,
      "Ġpounds": 6550,
      "Ġrig": 6551,
      "Ġremote": 6552,
      "Ġinflammation": 6553,
      "ĠGovernment": 6554,
      "ĠDiv": 6555,
      "Ġyield": 6556,
      "âĢĻm": 6557,
      "ague": 6558,
      "ipe": 6559,
      "Ġstruggle": 6560,
      "Ġheritage": 6561,
      "Ġschem": 6562,
      "orrow": 6563,
      "Ġdoll": 6564,
      "Ġstem": 6565,
      "Ġprem": 6566,
      "ĠâĪĴ": 6567,
      "Ġempathy": 6568,
      "Ġremoved": 6569,
      "position": 6570,
      "Ġresolution": 6571,
      "append": 6572,
      "MP": 6573,
      "Ġgreatest": 6574,
      "Ġarts": 6575,
      "ĠRussia": 6576,
      "den": 6577,
      "Ġbudget": 6578,
      "IL": 6579,
      "Ġdating": 6580,
      "ĠQue": 6581,
      "Ġarrange": 6582,
      "ĠPub": 6583,
      "Ġcompr": 6584,
      "Ġholds": 6585,
      "Ġrhy": 6586,
      "Ġopposite": 6587,
      "gra": 6588,
      "Ġaccounts": 6589,
      "tee": 6590,
      "Ġgained": 6591,
      "Ġrecorded": 6592,
      "roke": 6593,
      "Ġstudied": 6594,
      "Ġemergency": 6595,
      "Ġcandid": 6596,
      "Stud": 6597,
      "adian": 6598,
      "ĠEth": 6599,
      "(f": 6600,
      "ĠBre": 6601,
      "Ġdiscovery": 6602,
      "Ġreached": 6603,
      "Ġprevention": 6604,
      "throp": 6605,
      "Ġrespectively": 6606,
      "Ġsky": 6607,
      "Ġgovernments": 6608,
      "Ġdescription": 6609,
      "Ġdistingu": 6610,
      "ĠSpace": 6611,
      "Ġpassion": 6612,
      "ĠNum": 6613,
      "ye": 6614,
      "Ġrestrict": 6615,
      "Ġknowing": 6616,
      "Ġstability": 6617,
[...]
